/**
  ******************************************************************************
  * @file    model_2_data_params.c
  * @author  AST Embedded Analytics Research Platform
  * @date    Tue Oct  4 12:56:49 2022
  * @brief   AI Tool Automatic Code Generator for Embedded NN computing
  ******************************************************************************
  * Copyright (c) 2022 STMicroelectronics.
  * All rights reserved.
  *
  * This software is licensed under terms that can be found in the LICENSE file
  * in the root directory of this software component.
  * If no LICENSE file comes with this software, it is provided AS-IS.
  ******************************************************************************
  */

#include "model_2_data_params.h"


/**  Activations Section  ****************************************************/
ai_handle g_model_2_activations_table[1 + 2] = {
  AI_HANDLE_PTR(AI_MAGIC_MARKER),
  AI_HANDLE_PTR(NULL),
  AI_HANDLE_PTR(AI_MAGIC_MARKER),
};




/**  Weights Section  ********************************************************/
AI_ALIGNED(32)
const ai_u64 s_model_2_weights_array_u64[2561] = {
  0x3e433210be9c68c2U, 0x3f7396aa3d96ba4cU, 0x3e8bc85fbc39d91fU, 0x3d4e50603e0fd40aU,
  0x3e1b94093d89396bU, 0x3dd075adbe8e66e1U, 0x3e5210e6bb8bffc3U, 0x3dd12a60be75abc3U,
  0x3e815985bd5108c8U, 0xbe4ad7b4bd19a670U, 0x3e8768d13e0f9fe2U, 0xbaa69000be53fd3aU,
  0x3e5b17c4bcc7eb30U, 0xbe51ada2bd4e805eU, 0x3f7651c83d633d77U, 0x3eda58a23c8460fbU,
  0xbe362df23e79d84eU, 0x3d16ec523dc421feU, 0x3ddaabfebecbb76bU, 0x3efe73bfbed4b38bU,
  0xbea2646abe8e7b52U, 0xbd05c289bf2e866dU, 0x3ce20afa3e6af72eU, 0x3e096c05bc12d575U,
  0xbdae3744bd9f4466U, 0x3e09f7d33df2cb8dU, 0xbcbf4262bdb0ed55U, 0x3e144c22be339161U,
  0x3e3e45fcbe76b388U, 0x3dc8d6babe2c6525U, 0x3d00584ebe0f06bdU, 0x3cf8fc83bda845e7U,
  0x3e9d3659bda91322U, 0xbe1c81713e2438daU, 0x3e09fe67be0c6718U, 0xbd2bfe9e3dce095fU,
  0xbe4e6205bde0f288U, 0xbdb8db9a3c1b490bU, 0x3bc33356be181737U, 0x3e22dd3cbe236ef1U,
  0x3eec45a1bf62f525U, 0x3e972590bc645b9bU, 0xbe97fb23bd9fb007U, 0xbe59d099bebb0b95U,
  0x3e1531b2bc31f357U, 0x3e60bf78bddf1f9bU, 0x3b27b4e6bd9816e6U, 0xbe4d7097bf85bd05U,
  0xbe7a527fbefa19e8U, 0x3e01e12bbda6ea7bU, 0x3c91baed3d54de4fU, 0xbd54f40d3d7684f5U,
  0xbe8352f5be01bab2U, 0x3eb498903c46be8bU, 0x3ef6fe45bd26e576U, 0xbed6ad253e616cabU,
  0x3d6d91b0bec05aefU, 0x3d3ca891beeef7f8U, 0x3d9fe34fbe85d640U, 0xbe45fa40be1902e0U,
  0xbdfec0633ec2b612U, 0x3df4b1c5bcfb1be8U, 0xbe468a6abe194c35U, 0xbe636d2cbc84c532U,
  0xbdf1daca3c7a3be0U, 0xbd9b8d0cbc95eac5U, 0x3e598f3cbe78564cU, 0x3dffa836be2226f0U,
  0x3d8371f03e09f20cU, 0x3d07132f3e264622U, 0xbe25fdaf3e65eaaeU, 0x3e267d06bcd7cf2bU,
  0xbf0c0b07bd1dbf23U, 0xbd0688b0bc7f6793U, 0x3e017c94be025ae5U, 0xbdc6508dbe6f1698U,
  0x3e33235abdf6d3f6U, 0xbf25a1133de1d673U, 0x3e42d3acbe79eafaU, 0x3ee958a4be2b69adU,
  0x3c0b1856be8bd8d8U, 0xbe7909313e765a77U, 0x3e400f06bdb03f98U, 0xbdfd6a9ebe4389e0U,
  0x3dbe9a203dffe9f1U, 0xbea41cd7bd31350aU, 0x3e34966abf19ed33U, 0x3da18711befbd4afU,
  0xbe7ff38f3c7f6abfU, 0xbdea069f3e2e153bU, 0x3e974944bdadecdbU, 0xbe30a1873f20b0b4U,
  0x3fa6e9fdbdf6355cU, 0x3e9c24503e786282U, 0xbde763bbbcc6b2bcU, 0xbe23e592bdb4c155U,
  0x3e61b147bf0a4013U, 0x3d8d387cbecf0e28U, 0x3d7336e03cd5a630U, 0x3e4c8e96bd4fb714U,
  0x3e37a5fa3e036df4U, 0xbd125300bc7a4be0U, 0xbe829165be1faf14U, 0x3dabdefcbdf42762U,
  0xbe8b8eae3df6cbd3U, 0x3e9e565f3a9e83ecU, 0xbdbc4fc5becfb3ccU, 0xbf16daa4bd3e478aU,
  0x3e163fbd3ea5cffdU, 0xbe609811bda8b788U, 0x3e154533bf1facb7U, 0x3dd5e724bea3d5f4U,
  0xbe45aab43f75ba0dU, 0x3cee5eac3e135c59U, 0x3ec48817bd96943aU, 0xbdc246ddbd7340f6U,
  0xbe9979313d723a85U, 0xbd5bb04fbe3bc382U, 0xbfc7abc43e5a4ae3U, 0xbf44d5bc3e19f790U,
  0x3d69e2283e1d1764U, 0xbe2f678cbf21dbbbU, 0x3e103d433f06ed1dU, 0x3e6f8f16bc9793adU,
  0x3e39fe4c3d477a38U, 0x3d2189e8bde83652U, 0x3e888bf13e803b53U, 0xbe044bdcbe68ea68U,
  0xbe853aeebddb1640U, 0xbe02570ebd33a060U, 0x3e9d43983d7d9c01U, 0xbcb2ccc6be9e0aceU,
  0xbe3f05103e293439U, 0x3f0a1e74be466b29U, 0x3e3b12143dd66227U, 0xbe1e5598be932643U,
  0x3e238c44be2e8c85U, 0x3d266d60bddd239aU, 0xbce51a603dce9060U, 0xbd60977cbe2b9a08U,
  0x3df55c303dad065cU, 0x3e341eaabdb51676U, 0x3c23b300be7ddd1aU, 0xbe3ee2443d2f56b1U,
  0xbf2a59a13bc28959U, 0xbe6bdb84be0db45aU, 0xbe0470bebe889ecbU, 0x3e0ba9b93c9168daU,
  0xbcc283e73d498a24U, 0x3e1811163e816666U, 0x3e46924739c09f5fU, 0xbda96eb7be17548fU,
  0xbcd6a2423e387a31U, 0xbe09015a3e39107bU, 0x3e0568f23c82dacdU, 0xbd547e11bda75877U,
  0x3db99414be244a09U, 0xbef2196abe8ab284U, 0xbc93b4943d61358eU, 0x3e2397583e44fc80U,
  0x3cb3b1ebbe01d48bU, 0xbe5108e83e519071U, 0x3c45ea213d9bf2e2U, 0xbe0cb079bd8d7b96U,
  0x3dca15d2bdf2ce45U, 0xbc3440ecbb0bad23U, 0xbeb97b18be177025U, 0xbdf1d9c33dd80525U,
  0xbe744339be761f8dU, 0x3cc24ca03e80d461U, 0x3e3ea84e3d6516b5U, 0xbe539e4a3d90aba0U,
  0x3df706933dc8f1bfU, 0xbe2bc7cf3e4b2e9bU, 0x3d2a5f14bdc0a2cbU, 0xbf18134c3e3a51feU,
  0xbe0db384be405e70U, 0xbe8d4ae83f5acb16U, 0x3d76a2c73ea52ad6U, 0x3e064056bf13015fU,
  0xbeba1df03e03cc5bU, 0xbdee73a23e153c87U, 0xbd2c6474be8c95eeU, 0xbb7be980bd314418U,
  0x3d6991d03e033540U, 0x3e09a7e43d81b4a4U, 0xbd39fabcbddc6a4aU, 0xbe494e8bbe5189eaU,
  0x3e9d62603e602baeU, 0xbe03a781bea59e12U, 0x3e8df3cc3fa7150bU, 0xbe3ef4233ec61a3eU,
  0x3e83d5a1bf299c8cU, 0xbec4861dbdc93be5U, 0xbf103d813e457bf3U, 0x3c85f8523dd54724U,
  0x3f395605be311109U, 0x3ef237c23e620690U, 0xbe9361623d641172U, 0x3cc8f9e8be119468U,
  0x3c0bf4fcbe9c0ae3U, 0x3fb3eac7bf8de9bcU, 0xbea8a6d03e485b35U, 0xbe289cb43ee5eebcU,
  0xbe1c963b3f143885U, 0x3e602586bedde9fdU, 0x3c1932b2be8725c2U, 0xbed5b2a43e69ca0eU,
  0x3d6e5ac8be5d0bcaU, 0x3e1930d23cb13140U, 0xbe2b339abda3fd6cU, 0x3e8dd49f3db3cd18U,
  0xbdf08d5e3da00730U, 0xbe3e44cfbc81b160U, 0xbea48bffbd58ca44U, 0xbe131881be0bcf27U,
  0xbdd46bb1bf95519aU, 0xbdcb54dcbedd8b50U, 0xbebed8083d154626U, 0x3e2aa3703e4eb767U,
  0x3d667a7bbdac9a9aU, 0x3e6280adbe88995dU, 0x3f3128003e2eaf3fU, 0x3dc8e32b3da8b1c1U,
  0xbe952751bdbc1fbfU, 0x3cfcc7873e32b767U, 0x3bfc136ebbb32021U, 0xbe40f7a4bf180f17U,
  0x3d289021bd1487efU, 0xbe4626bbbec35a8cU, 0xbd93eec33b411927U, 0xbd96c10d3daca966U,
  0xbd6053593d1db167U, 0x3e96ed3ebd87eeb1U, 0x3e8cc1a5be0e4dc9U, 0xbe1c0364be1d7a82U,
  0xbce136b0be5d9dccU, 0x3e0ec0fcbd9a6d14U, 0xbe854c57be66254fU, 0xbe5b0d6cbbdbb740U,
  0x3d5bce20be26dc15U, 0xbd4e55e73c1644c0U, 0x3e622fc6bf37bf4aU, 0x3e3634cb3d9bb677U,
  0x3e8d5af13e8cb20dU, 0xbdab166d3d80b7b2U, 0xbe5e1857bea765e6U, 0xbc98e94dbe90036cU,
  0x3f2380ddbea211acU, 0x3eab4f6a3dbc868dU, 0xbe7ba1873e08bab5U, 0xbd947264be5e15a9U,
  0x3e01badcbce7235dU, 0xbe262d83be869395U, 0x3daef3d83e8cf265U, 0xbcf9f0483e81f3cfU,
  0xbd9821323db9c994U, 0x3d2cac78bd51a5dcU, 0xbe3d4370bd94a70aU, 0x3e7389a6be2bc085U,
  0x3e46c577be75f132U, 0x3eb08b41be96b08dU, 0xba2277babea6e2c9U, 0x3bb496e93d8ee549U,
  0x3deeaa4ebdb8e1e9U, 0x3db0c114be6438f3U, 0x3e28eb02be292280U, 0x3e55c56f3e544f7bU,
  0xbd7838613f820adcU, 0xbd7d05573ed5d637U, 0x3e94b3cabd08a0dbU, 0xbcb6a507bdc21731U,
  0x3c32fe423dcbf8eeU, 0x3da0adab3dcd5828U, 0xbe6cb2f83e44fe50U, 0xbe2327173e81ce4eU,
  0x3e63b5a73b4ed6aaU, 0xbc982ac6be0c6b05U, 0xbcc8d8d03e3adb3eU, 0xbe52bc28be63093bU,
  0x3c8477bb3cd53e96U, 0xbd8d65aabe94c2bdU, 0x3e926e52be0d552dU, 0x3d97416c3e955f15U,
  0x3e0c28a6bae9fe96U, 0x3e70afefbdce4cb6U, 0xbe56cae2bf3060f7U, 0xbf12d58c3cb0a973U,
  0xbf4da58fbcdf9159U, 0x3eb440fd3bae91c6U, 0xbe2fd5bcbe3a4d36U, 0x3e5c36383e7d981cU,
  0x3b0ca50c3da7e018U, 0x3dcd6a73be1758c5U, 0xbeabf9a5bec72a65U, 0xbe2533a1bf0dc0f8U,
  0xbe0a601a3ec742bdU, 0xbe0026b23e4d298bU, 0x3ea452c7bd814e1cU, 0xbb987822bd794ba3U,
  0x3e904442bed5e8e0U, 0x3f03397cbc476603U, 0xbc6c3df5be332d43U, 0x3e32261c3e280465U,
  0xbde68039bdf590d9U, 0xbeed7973befed0caU, 0x3ddc6103be34d4f0U, 0x3e1a86fc3e80b9bfU,
  0xbed5c2683d33c312U, 0xbd966b803f03f853U, 0x3e0fdb08be3309b7U, 0xbed0ef903e40a293U,
  0x3e8b8d853d148660U, 0x3e862375bd03e61cU, 0x3e3085e83e095b20U, 0x3c266a00bdeede0eU,
  0xbd6a5910be263926U, 0xbd13262cbe037caaU, 0xbd658cc43d8757f8U, 0xbe56bb0bbdb250a0U,
  0x3d40777d3ed68da9U, 0x3c6aefdcbe9f7a11U, 0xbec703a8be293da9U, 0x3d726eee3e457256U,
  0x3e1ac6a7be421a34U, 0xbe5d2af33e0606f0U, 0x3d177ba0bcea1248U, 0xbefcb0e43c58cdfeU,
  0x3dd5c333be0deb0bU, 0xbd79b7a6be50566dU, 0x3dcaaa373e6ec3fbU, 0xbe337f24bdad517fU,
  0x3e7ba10dbe735812U, 0x3e0e9f943e51e5c7U, 0x3e0fcb873cb840b9U, 0x3d351d333cd6bcf1U,
  0x3c00b9383e2d9305U, 0xbf057f58be4aa6bbU, 0xbdc5bcf0be8cdf87U, 0x3da6455c3e81210dU,
  0xbe23cd4a3d1bacd0U, 0x3e7efb52be6e05f5U, 0xbe8bc5d43e864c03U, 0xbe85ab04be74b6beU,
  0x3c0b982a3e83ae71U, 0x3e1376753d4ed17eU, 0x3d7f22c43f8d3d19U, 0xbe62cf453dd301caU,
  0x3cc761a9bf30cb6eU, 0xbd0e95d83d19a4a1U, 0xbf6491163d0ca984U, 0x3d47f7a2be3ffe36U,
  0x3ef9b3533e42019cU, 0x3d8d3e35bbfb8323U, 0xbe996e623ddc9c72U, 0x3dfdf14e3e7ab930U,
  0x3e346bd93d907da8U, 0x3daf1deabe5010e3U, 0xbe32503dbe0fddd8U, 0x3e4424f9bf485628U,
  0x3e445ddfbdff0a6fU, 0xbea5e87bbe59b255U, 0xbc8446f03d4276afU, 0xbe1763b5bbd37057U,
  0xbe80ba23be4e32d8U, 0x3d464b20bdc13958U, 0x3e74dd723e2fb8d2U, 0x3e72e3febe439638U,
  0xbe09ba983d88b970U, 0xbcfecf18bd4b2304U, 0x3de1fcd23e111cb4U, 0x3e63c47abe4ad622U,
  0x3e976120beaab1fdU, 0xbe07efc23e5f9c36U, 0xbe9c97d93e4871c0U, 0x3d2001de3d17db71U,
  0xbea2698e3cad6555U, 0x3c3ad7903d2109c2U, 0xbf61dd4ebe594c69U, 0xbeda64893bffc80fU,
  0x3ec934eebe81e6c6U, 0x3e1595fabee4a211U, 0x3e0cc7473e54ebe9U, 0xbe1ea7cd3ead88ccU,
  0x3be73b18be65dfbcU, 0xbd1eddabbf07eb38U, 0xbd9f6ae5be0154d3U, 0xbeabd8bcbc373454U,
  0xbe04f37c3e4a57d1U, 0x3ed31faabe1a728eU, 0xbe18fd9ebd35634dU, 0x3f176d41be629b11U,
  0x3e5a4450bdbef92dU, 0xbd127e03be905d79U, 0x3e474a0b3dc5f2f8U, 0xbdaa52dbbdd67b70U,
  0xbe7a7a6dbeba27deU, 0x3d8585183e2179b8U, 0xbc4935803e26d954U, 0x3e7574b23da70fb4U,
  0xbd4474903c9b6310U, 0x3d24ac88be10788dU, 0x3e87c18dbe46f966U, 0x3e6e66c6bd250b6cU,
  0x3e09d670bd497050U, 0xbdfc3a12be6c5f9cU, 0x3b141d00be8c8f6aU, 0xbe38def0bcd03520U,
  0xbd8641ccbde57f1cU, 0xbe809678be2c5c1cU, 0xbdf36b513e29138dU, 0xbe3272913d174454U,
  0x3da01d93bd6fe884U, 0xbd3fe0a53e624c33U, 0x3ce94953be6653e6U, 0xbe8d5bda3d6f69f6U,
  0x3dc4d978U, 0xbe1949263d8e9d4bU, 0xbd0fd3cdbda3dfa3U, 0xbe1dbaa73d809956U,
  0xbbf46b05bd17db61U, 0xbd7f0a16bd490f25U, 0xbdf592e53defba79U, 0x3d01b220U,
  0x3c0776623cc25512U, 0xbd85d3c2U, 0xbe0a49ebU, 0xbd83aa0fbe08cfdaU,
  0xbda54dccbcf1986eU, 0x3c04a5dfbbb37114U, 0x3c6e6dc500000000U, 0x3cddf9243de2fa6dU,
  0xbe0e138300000000U, 0xbdbea2993ddbd7d5U, 0x3cbe9c0f00000000U, 0x3d69d50cU,
  0x3d6caf663d4c81b6U, 0x3e027072bc1c1eb9U, 0xbe1fe680bd8bdd30U, 0x3c267ac7bc63a547U,
  0xbdf1319500000000U, 0x3dec0a99bd4e0028U, 0x3d86966500000000U, 0xbe2385d83d302400U,
  0xbe02444200000000U, 0xbe1213adbe686e64U, 0x3daa590bU, 0xbc03e01800000000U,
  0x3dcf6016bd9877f7U, 0x3d62c2fabb5a7d25U, 0x3dfd1c38be31d848U, 0xbda01893bdd96230U,
  0xbd17929f3e6c0813U, 0x3df92b503d2b3a72U, 0x3e0b5fc23da74dd0U, 0x3d050b0cbd1bcda1U,
  0xbdf11a5ebd7ff470U, 0x3e5b026dbed432ddU, 0xbdf83eddbe2950f8U, 0x3d75cc30be516fedU,
  0x3dd20b61bd9b6445U, 0x3e1846cf3d5da1f2U, 0x3df45cf83e310f6bU, 0x3ea28b963eff3789U,
  0xbc283d0bbe43c306U, 0x3d5d199d3dd32451U, 0xbde87b9cbd9df114U, 0xbde0130fbe1fb03dU,
  0xbd442a5d3d0c429aU, 0x3e921e74be29b118U, 0xbe69a997be4a9d95U, 0xbe171bb4bd90e5c8U,
  0x3d7f8b023ddb18aeU, 0xbd7bb298be22b276U, 0xbd35a0893d336c7cU, 0x3e09191c3c316888U,
  0xbd657c8d3dd45b32U, 0x3de928c1bdae362bU, 0xbdf915e9be1778cdU, 0xbdec2a8fbd73afc4U,
  0xbdc7c643bdd4bde0U, 0xbe2e45ad3e3c50ddU, 0x3df11366bda20c60U, 0xbe177f18bd583d7cU,
  0xbbac85a0bc7d1a10U, 0xbd3bf110be08a7bcU, 0xbe395ceabcdcf550U, 0x3e52fd07bd2f2fc8U,
  0x3c7a18603ca2be18U, 0xbe39a63e3e46b4a1U, 0xbe07f41dbd437a78U, 0x3de26cba3dbcf37aU,
  0x3df0b9d23e55b9f1U, 0xbe2d0cd0bcbca0d0U, 0x3db5174a3e3ca679U, 0xbe36234f3e4fb9cdU,
  0xbcf439d8bd009f34U, 0x3daabaae3e25310dU, 0x3e0144093e1b23b1U, 0xbd921ffebdc275a1U,
  0xbc81a440be180c26U, 0xbe2fadb63ce47400U, 0xbdb79a78bd38fba0U, 0xbd77c9003d6731f4U,
  0x3db7e5a2be078e3fU, 0xbdf2e6a03e3dbdb3U, 0x3c734f603dbc8916U, 0xbc1b3190be1b470aU,
  0xbdd0cc71be296295U, 0xbe0977173e40e5adU, 0x3e368b57be2481deU, 0x3e2f1e5bbdfed311U,
  0xbdaeaa7c3d1d632dU, 0xbde05d2bbe5ed7eeU, 0xbd59b2a03ba24021U, 0x3e75e5943d17e40fU,
  0xbee8f0f3bc37e21cU, 0x3e12023abcdddf90U, 0xbe9a7a39beaa2553U, 0xbe483eb9bd306d04U,
  0x3d6434b63d95629aU, 0x3e2aa68bbdb90fcdU, 0x3e02e20dbeb8fb8aU, 0x3d973e3f3d941ea0U,
  0xbe550660be0418abU, 0xbe1517713e3296f1U, 0xbdb0e61e3deeb8faU, 0x3e188a26be9618cbU,
  0xbdf145a33d879a3aU, 0x3d51d91cbb66c9d6U, 0xbca49f30be23c6f4U, 0x3d7f96b43d94c444U,
  0x3d563b67be666e21U, 0xbcd022183d920b7eU, 0x3e3cbf903e543c70U, 0x3ed047fbbdf6bca8U,
  0x3deafd173e075633U, 0x3e3320993c209b42U, 0x3dec4c113d27657cU, 0xbe6a11ef3da15e27U,
  0x3dbe6a233d7ff564U, 0xbba9a9643e2e65c2U, 0xbe058feabcd87411U, 0x3d552f243c087890U,
  0x3e38b36b3d032c89U, 0xbd4ecf86bd67a5cdU, 0xbe3de6823e060489U, 0x3cdc71623d42113cU,
  0xbdb485f43e2ce842U, 0x3c106d4a3df6fd91U, 0xbe03fc67bc20c498U, 0xbddce9ad3dfc13c6U,
  0xbe63d776baff491bU, 0x3db967be3d9432ccU, 0xbaa80580bdf6381cU, 0xbdd2a5f03dfba076U,
  0xbe4f4cf23dbd8859U, 0x3da119b8bc63628aU, 0xbe637d3cbcdde4c8U, 0xbde88cddbe86c110U,
  0xbdc0243abddedee4U, 0x3e044fedbe58b662U, 0xbe4a85033de3eeeeU, 0x3dc68a6abe27fec1U,
  0xbe3e702dbe4caf22U, 0x3dc9ca31be58cf77U, 0x3e06b82abe0cff35U, 0xbd84974f3e2e9e61U,
  0x3c5e3173be1e6190U, 0xbe4d1bbfbcba6474U, 0xbcc5c40cbdab3cfcU, 0x3e026d46bcbaeef0U,
  0xbd8d6f0f3e08ffffU, 0x3cc1efb63e065e3cU, 0x3cd8ffa0bd94e912U, 0xbe2167a3bd9789daU,
  0xbe37d8233dbd9702U, 0x3dee6af2be16440cU, 0x3e4b20cfbd1b663cU, 0xbe4af6b93e513ff3U,
  0x3de9b98abdf4eb21U, 0x3d1c7e04be32c6f4U, 0x3dc42ff2bdcbd848U, 0xbcedd928be202ddeU,
  0xbc30f9b03c754570U, 0x3e3b33a3be49147bU, 0x3df2e7d2bdf32bfdU, 0x3d95fec2be2d075cU,
  0x3e0d7ae33d534494U, 0x3dbc52fabd8e4b54U, 0xbe43edc1bd79b364U, 0x3c7dd4b0be5d6628U,
  0xbdd44285be33a99fU, 0xbd1c82b83e2c5f4fU, 0xbd2552c4be1a10a6U, 0xbe1a7487be4edcdbU,
  0xbe547aebbe50e010U, 0x3e1c7fc5bcd7ac78U, 0x3dbea5fabd914984U, 0xbd2d18ac3d2c33f4U,
  0xbdbacb523e4c3f27U, 0xbe1123ce3cacfa78U, 0x3ad11b003d1602a4U, 0x3e3046793c05d080U,
  0x3ddb1406bd519340U, 0xbcf3ac78bda2120eU, 0x3b1b2300bbaca380U, 0xbd676bf03e3da215U,
  0xbe3581fcbd5e2476U, 0xbe168c833d24e480U, 0xbe29d7023c1c7c30U, 0xbdf085d7bd738290U,
  0x3d102f94be4a8e5eU, 0xbe3f98373e4bb4beU, 0x3e35e81d3deda294U, 0x3dd2b37a3e0137fbU,
  0xbd9646a2be248811U, 0x3e2297c1bd146720U, 0x3e4e4b87be2d5551U, 0xbcea3991be54c777U,
  0xbdcc8132bdcb9234U, 0x3dd331f93e4f276bU, 0x3e19cc8bbe2556f0U, 0x3d8e9ab63db162ceU,
  0x3dd824ec3e2af827U, 0xbe3eca19be01ad63U, 0x3b696f44bdea2531U, 0x3d0422e4bdcc4528U,
  0x3e589eebbe4d248cU, 0xbe04cdb1be152450U, 0x3dd91d3fbe4a7b38U, 0xbe558dfebe568974U,
  0x3e4b47573e261dd3U, 0x3d537350bccd5ee0U, 0xbda50b00bdba9384U, 0xbd822e4dbdb8e251U,
  0x3c0bb72cbe307374U, 0xbcb8bd9cbe56729cU, 0xbd09f6b03d5e2e78U, 0xbe446a3fbe45b6b4U,
  0xbe26bc483d8fc519U, 0xbdee44b53e5faedcU, 0xbc9f22b3be003a01U, 0x3e37f5d43eb821a0U,
  0x3a83fe7e3da478b0U, 0x3dd1fd893ddfe478U, 0x3dded7a03e0aec65U, 0x3d7c3884bda4dafeU,
  0x3d8f234fbd5ae3a2U, 0xbe3e96e2be7ea5a8U, 0xbde3cdfd3e4a6017U, 0xbdfb8865bd6f8166U,
  0x3dd87d5cbd925c01U, 0xbcd4757f3e289db7U, 0x3e9961febd3c0178U, 0x3e55eba13f23bb29U,
  0x3e1cbddebd92a56aU, 0xbca529e23d4435a9U, 0xbe76baf13d895746U, 0xbd962f483e2bfb1bU,
  0xbdc7fc6cbd7b1462U, 0xbe15a3c5bdcc8283U, 0x3e21d994be1cbf30U, 0x3e358459be402566U,
  0x3e0861933e1e5157U, 0x3e3d15d63d3b0116U, 0x3e9fef94be21c08bU, 0x3e6758d33e0d0167U,
  0xbe2bee713c11d2b0U, 0xbd696faf3e151cb9U, 0x3e12f10b3e0e3eb7U, 0x3e19be6f3e123691U,
  0x3e2e8d77be379462U, 0xbe4f89883e108dc0U, 0xbcdbd178bd19ce61U, 0xbe3d0d3cbcfa3b9fU,
  0x3de7d33d3ccd1688U, 0xbe655bea3db1ffcfU, 0x3d178464be53d7dfU, 0x3d87f98a3deb8632U,
  0xbc86f7f9be045468U, 0x3e024631be0c6837U, 0xbd222e20be51ae1bU, 0xbe47c1ce3ded2a5cU,
  0xbd3906a3bdcba959U, 0x3d98bb683dd21bfaU, 0x3e4bb5753e1353fdU, 0xbd491ce73e2f1450U,
  0xbc0497babe14d1b0U, 0x3ccb8dbdbe044fb0U, 0xbccc70c6be10e4f6U, 0xbe0aecb03da46c34U,
  0xbd735e013dd0463dU, 0xbd939faebe115512U, 0x3e0d8b15bdbe1b2cU, 0xbe61c57cbe56b48aU,
  0xbd4ca6483c32b3d0U, 0x3e20633bbe14ab97U, 0xbc40f133be1a6f52U, 0xbe534f3dbc96502eU,
  0xbe531bf0be2bf048U, 0xbd153c28bd8d266fU, 0x3e2289313e1d3e66U, 0x3d1d85643e02e515U,
  0x3e4a80f53c07096eU, 0xbcec148b3de86f74U, 0xbe53951c3de0525dU, 0x3cfff732be2c9196U,
  0x3d1e0ff83dca83aaU, 0x3e03ba5bbd94757aU, 0x3e42563ebdf220a4U, 0xbe213399bdcecca8U,
  0x3decfa95bbe0f317U, 0xbe4461043e2f4ff1U, 0xbd348348be112ce1U, 0x3d7977d7bb2f7e3cU,
  0xbe5cb30cbe3d7d20U, 0xbcd8b796bd770c30U, 0x3d3dbd12be24e1ceU, 0x3d2ee4c5be8da0c4U,
  0x3d86aacfbdedf634U, 0xbba01f2e3e480e64U, 0x3d9ce606be5cb76cU, 0x3e46417dbd93ca58U,
  0x3d36c27fbcfd8ecdU, 0xbdf1f7b63e148a41U, 0x3e46fd94bd0f2632U, 0xbe41f7dbbdccf9d1U,
  0xbe4fc3d93e0185bbU, 0xbda9d47e3de60154U, 0xbe82e92e3e0ea7e5U, 0x3df5d908be189a49U,
  0xbe3246363cca00c0U, 0x3dc775223e330a28U, 0x3e1b85f3bdae7e0fU, 0xbdf5846abd574934U,
  0x3e2e36e7bdc890cbU, 0xbd7a04c6bcb5f784U, 0x3e4070eabe46784fU, 0x3d8f655c3d2e7d54U,
  0xbe0fd33bbd08a11eU, 0x3bffa663bdc50226U, 0x3dda5f503e1dc308U, 0x3dedb94ebd5a0008U,
  0x3e2f6796be83bfadU, 0xbe0754a8be2b3917U, 0xbddf24a2bd859e40U, 0xbe24f0ec3d79fdf9U,
  0x3d45b5bb3dee9965U, 0xbdd44fa83dec4e02U, 0xbdcb9d4b3de0f2eeU, 0x3d8ed85abc0dda67U,
  0xbd94dbb83e5b82d9U, 0xbde535ec3d0afff1U, 0x3d8e95f93d0488e0U, 0xbe120a12be482847U,
  0xbe1e5e08be045b69U, 0x3dde48843d9deac6U, 0xbcab7871be4a9954U, 0xbc642fd0bdf924bbU,
  0x3d92464d3d164284U, 0x3dde0be8bd1330faU, 0xbd81a954be3a4942U, 0x3e320789be036861U,
  0xbe5756333c8b6e88U, 0xbcb5c40e3e0823e2U, 0x3e02994d3d877345U, 0xbe31b6c0bd0963f0U,
  0x3cd832603d58613aU, 0xbc928648be647991U, 0xbe5708c73d7c900aU, 0xbd8dce9ebdff08a7U,
  0x3d9c44b1be7cbe4aU, 0xbde70177be112f48U, 0xbdb8bf21bdade086U, 0x3e52c5473e4f6653U,
  0xbe4e518c3d686086U, 0x3be61120bd6242dcU, 0xbe58d1f33e25cb9cU, 0x3c09f189bcacdec6U,
  0xbd6291aabc2c1c98U, 0xbe58347b3cee1218U, 0x3e4d4901bdd0ab57U, 0x3e5bb33b3dde5505U,
  0xbc034662be54d2d9U, 0x3d957ce3be39efe6U, 0xbde757713e1ea14fU, 0xbd0306783cd56808U,
  0xbe3f9ba3bdd1d80aU, 0x3e27b983bd9ae26eU, 0x3cfe16babd73bfe4U, 0xbcbefbe8bdbc2132U,
  0xbde3a386be510f35U, 0xbc535a18be55f539U, 0x3e467f6a3cdd6828U, 0xbe0bcf6e3d7ab401U,
  0x3d9490303e15fbd1U, 0x3d06c9babdcab9b4U, 0x3cadf8e03de80253U, 0xbe3b1c22bd45f4fcU,
  0x3d3ec33c3e353904U, 0x3e0a4e033da08e16U, 0x3e10c777be6fbbe0U, 0x3d507dc9be6463b8U,
  0xbe7a2ea13de619c0U, 0x3e4711c1bec53a98U, 0x3e6a733e3d34873aU, 0xbe29aa923d306056U,
  0x3e4cabf7be6aa9deU, 0xbe3c48103db6168bU, 0x3c94d7983cab43daU, 0xbd3e88a2be186ad5U,
  0xbc3a9ab73e9de409U, 0xbd23529e3e14939cU, 0x3bb8c160bcf82940U, 0x3c867bfabf263daaU,
  0xbe3a5f9f3db39216U, 0x3da180373d98bb35U, 0x3d9f654b3c591b60U, 0x3cb3a8a8bd8ec2ccU,
  0x3d42e9f9be06549fU, 0xbe5bd5643d6c6f58U, 0x3e1a5c2a3dfd0c7fU, 0xbc864881be45f4a1U,
  0xbe2ded9cbc667f50U, 0xbd3e9f2dbd79f5cbU, 0x3d8f75e73e1c1f0fU, 0x3e41771dbe0f9620U,
  0xbd9f08d03dc07552U, 0x3d3d106d3dbde081U, 0x3e4fcb0b3dc4349fU, 0x3e47eabd3e00dda3U,
  0xbe432e9fbc0804feU, 0xbe048d643dedd5e3U, 0x3e0dfc3abe36d8a7U, 0xbe24dff9be5f8c26U,
  0x3d7a53f6bcf24059U, 0xbe0ce026bdf6c810U, 0xbe170e78be395137U, 0xbe3e4e2d3dc8e012U,
  0xbe3b5b383e070ff2U, 0xbe206db3bdda8356U, 0xbc317850bdf00eafU, 0x3e483b5b3e4ad3e8U,
  0xbdd4485abdad4b08U, 0xbe53af82be428b09U, 0xbd715930be1998bcU, 0xbdb27e6dbeb12612U,
  0xbd50b5a13e5d4523U, 0x3e5a5258bd33ae5eU, 0xbd0fd8e2be1d541cU, 0xbe31470f3dde076cU,
  0x3e31a4f13e44f9eaU, 0xbbd21dd6bbeb6eddU, 0xbd9fe3ebbe298e66U, 0xbe543d2f3d9295a1U,
  0xbda9da02be0a325eU, 0x3e202f353db7b942U, 0x3d515391be43c8e5U, 0x3e480fc7bd28614dU,
  0xbe1bfc173c8a48a0U, 0x3d82032c3e30b0faU, 0xbdaa44a83e1fe659U, 0xbdaeb00cbdb193ecU,
  0x3ca732f8bd311356U, 0x3de42af6be4e8662U, 0xbb980fe0bdc04775U, 0x3d0aa87f3ea41f10U,
  0x3d7d6926be6ef1d2U, 0x3d7eefdcbb9fd6beU, 0xbde0e482be46f2adU, 0xbe04f0b7bd36befeU,
  0xbd93896ebdb38af5U, 0xbb4047403de6002bU, 0x3cbb7ae83ce397c6U, 0xbd9d47e6be1378daU,
  0x3d24f76abd7c4ae5U, 0xbdadcc0fbe626693U, 0xbcfc9149bddd0927U, 0x3cab0776be625eceU,
  0x3d8146d6bda153e2U, 0xbe271700bda79006U, 0xbd8f8d973d7e5ac4U, 0x3ce2f150bc722125U,
  0x3e2cfb523da7e803U, 0x3e2768f0be63c327U, 0xbe5b6b693d772237U, 0x3de005c33df9fefdU,
  0xbdaabd7b3e1cd1fdU, 0xbdbd47ca3ddc06c4U, 0x3e3b7b553e319f15U, 0xbe26a203bc9edb73U,
  0xbe2a2b06bda1df42U, 0xbd0f6c893dc61b92U, 0x3c8c1098be51bb58U, 0xbe1ba5e1bd0cf6f4U,
  0x3d98ab46be6aabf8U, 0xbd0e2b3a3e4bf604U, 0xbe5695873dfcac18U, 0xbe0254da3e12bab1U,
  0xbd00bd033d08e7bdU, 0x3d78e0e9be442049U, 0xbda52d243d6aa9feU, 0x3d8ddfea3e44ad13U,
  0x3e21d1303dc55863U, 0xbd2fe6643e294108U, 0xbdfb97b73e51f40aU, 0x3e0b49c73e38822fU,
  0x3d8c6166bd67e49bU, 0xbdb8fb10bd948cdfU, 0x3c6925f33d5f47acU, 0xbd46e84bbc955a8bU,
  0xbdbcea83bd1236ecU, 0x3e4ecbcf3e40c1a6U, 0xbd54f44bbdf55b09U, 0xbd1a1c983e00227bU,
  0x3d83ea7dbe67a20fU, 0x3e4de304be494b01U, 0x3e28c259bdf6c328U, 0xbe422cfebe358f75U,
  0xbe2a2be4be0fef6eU, 0xbe3f1f75b9ede37aU, 0x3da63d4a3e0576f3U, 0xbe57d8b6bc1880e7U,
  0x3e31197bbe07b704U, 0x3d4dab6e3dfb22cfU, 0x3e04bd033df55083U, 0xbbc58540be17e708U,
  0x3db3b1b2be214c59U, 0x3da495513c372167U, 0x3c02da683e0c3410U, 0xbded45703dbe13f7U,
  0x3d31ad823d313b47U, 0xbe2cd756be32595fU, 0x3e1219afbdbda4e1U, 0xbde17219bd858cedU,
  0xbe1fbcc73be9cfd3U, 0xbe3f7bccbd0f6b78U, 0xbdb25688be22b444U, 0x3e3663063e19586aU,
  0x3d4690c9bddcb423U, 0x3c909577bcc70afbU, 0x3e152798bd8b5aa4U, 0x3d34a5e13e814c09U,
  0x3d3ad9b43e0ce24bU, 0x3dfa298dbe4a8e76U, 0xbda5940c3e394c91U, 0x3e432ba13e0ae4a6U,
  0x3df5c44a3e1086afU, 0x3e5fa29abd1884adU, 0xbe0b13873b96ca63U, 0x3e2504223de5e1ecU,
  0xbe38e7223e4daeedU, 0x3d3ff9e73b005988U, 0x3dd62624be4fe91cU, 0x3e0d14c4bd69db79U,
  0x3e019ac1be4263a9U, 0xbe39b7b73d61d10dU, 0xbe3ec7503e50079aU, 0xb965f0c7be21dc0aU,
  0x3de2b386bdddaf4cU, 0xbd35ecd9bcd0a08eU, 0x3d2e34acbd7829cdU, 0x3df026f4bdb2712cU,
  0xbdef568abdd5d693U, 0xbda3d6a33e0559abU, 0xbe487102be49b9bdU, 0x3cd000e03db9e9adU,
  0xbd677bd8bd0495dcU, 0x3e36d3853c3a60a3U, 0x3d8d57de3e4cfd35U, 0xbd861599be4a8435U,
  0x3dc5c022bc2b75e0U, 0xbe13f573be01a245U, 0x3d6f5f863e1e4d9bU, 0x3d6bb3a23ce6bcfdU,
  0x3e2d76693db374feU, 0xbd060e18be53e3c7U, 0xbd9141e23def5312U, 0x3e218617bca98aedU,
  0x3cfe6190bde8cab7U, 0xbe42298abe599034U, 0x3ccae5543da3d94bU, 0x3abe74123dd6aabaU,
  0xbe1d43013da28c9aU, 0x3e2195a33e05d045U, 0xbd593447bd49ef70U, 0x3da1987e3db8a131U,
  0x3dc33e423df4af7aU, 0xbe351d703da3218fU, 0xbe3c0d37be4fb672U, 0x3e4ae5f33d510d4cU,
  0x3c259480be4454f1U, 0xbe025ad8be466305U, 0x3e2beaf0bd4b32eeU, 0x3ddb708e3e7faeebU,
  0xbd8b0be63e0553eaU, 0x3d0d0e65be764cbcU, 0xbd499af7be3b824cU, 0xbdecf9913ca84e0dU,
  0xbe4efb773e0c2d5aU, 0x3cbbb8f03dac292cU, 0xbd883c463c67fd39U, 0x3e3578ba3e1e42f4U,
  0x3d1a89f83e133de8U, 0x3e477cc13e311c86U, 0xbd77dfd4be0a388aU, 0xbdca82c83e9d9cfeU,
  0x3daa49dd3ceb1358U, 0xbdbf6fbcbde4d28fU, 0xbe7a47e2bd3f8f74U, 0xbd4889c43e3ed543U,
  0x3d101d003e0d81cfU, 0x3dee3b7d3df4b6d2U, 0xbdf447563ad7e330U, 0xbdd571aa3d10085bU,
  0x3df77c9b3e1b7813U, 0x3e2c22c43df0ba8dU, 0x3e1ef60a3e0211ddU, 0xbe3e6fe9bcf3b458U,
  0x3e0712293e120723U, 0xbd521c0a3dc9b170U, 0x3d92aa2ebd585898U, 0xbda8e729bc11eca0U,
  0x3e26b8e9bdc4f335U, 0x3e1c323cbcb98166U, 0x3e3379dbbdb8ef40U, 0x3dbf7623be507affU,
  0x3e0465aa3d7399bfU, 0x3dde7eedbd89266aU, 0x3e3950f7be3df1a2U, 0x3c92c068be5674aaU,
  0x3e184263bd702fc8U, 0xbd24e8303e6f7842U, 0xbdf6fa6ebe4dd9f2U, 0x3da8d7fcbcece0e7U,
  0x3d71606d3ce1914bU, 0xbcf2f5683cbc4af5U, 0xbe49a516be288634U, 0xbe8aeee5be9d3613U,
  0x3e0ede86be170216U, 0x3e1ff4883dd10258U, 0x3dbb6be73dbe788eU, 0xbd02f8a83e039c1cU,
  0x3cc51e273dd7df37U, 0xbe101c31bd9bc66aU, 0x3d9ea22a3db22b91U, 0x3cb372833df70275U,
  0x3dcdbdaa3d6ca244U, 0xbe18783b3d085746U, 0xbdbe1caab8878800U, 0x3debf580bd316f20U,
  0xbe43f71c3dad1236U, 0xbcb8d10e3d6a4b57U, 0xbd9f84203d5b399aU, 0xbcd9f786bdd67d50U,
  0x3d1632d43d03e028U, 0x3d8ce2623e11f183U, 0x3e5b4cd7be013546U, 0xbe0802b0be12be81U,
  0xbdd3a5dabc652020U, 0xbd7d8c2c3e15e3b1U, 0xbe191442bde067a2U, 0xbe3030a2be1def2eU,
  0x3c8bdfc8be12c43aU, 0xbc9651b83db1d6beU, 0xbe56d7c9bd826398U, 0xbd1dc0d43e3c4291U,
  0xbd4593a0bd882bbeU, 0xbbc2ff60bdaf4380U, 0x3d8d5412bd9b50a8U, 0x3e3baced3dc2fa0eU,
  0x3e3516c53bfe52e0U, 0x3e1b89af3e2d502dU, 0x3e1ba55bbce00510U, 0xbd8ed9163e53f767U,
  0xbdb9cfcc3d8d5346U, 0x3d9834d63e356d17U, 0xbdea5c053e4a58a5U, 0x3e12c5bbbe40f6edU,
  0xbd50ff603c63b960U, 0x3e058a79be06fc02U, 0x3e11fdd1be35c295U, 0xbe450cfabe3bbd80U,
  0xbd93d0a0be1383ccU, 0xbe3ab213be31c630U, 0xbe16480abdf6db48U, 0xbd0b5aac3e35223fU,
  0xbde682223de1b12bU, 0xbe3a0f033de051bcU, 0x3d9a864e3dff2f26U, 0x3e098a783ed6d85aU,
  0xbdc9b12abe23b8e1U, 0x3e6868f2bdfdc6d8U, 0xbe85060ebd6d2c69U, 0x3e5994db3e313157U,
  0x3dcbd79e3e4fbcb7U, 0xbe4cac5dbe1237ceU, 0xbdf3afe5be1d0485U, 0x3db38762bfbddc3cU,
  0x3e572309bd9b9a76U, 0x3cfb8b4bbdecf4c3U, 0x3e6c36c8be3dbbc7U, 0x3e915f213f03a8ceU,
  0xbf09d1b9be14e868U, 0x3d4b6564bdaa5898U, 0x3d7b11443c2bcc40U, 0xbddd041e3e4ac719U,
  0x3d6d8be9be17fd23U, 0xbdd527dbbe36cb00U, 0xbebb65b93e0be322U, 0x3dbe43debdc3c6b9U,
  0xbd1db46d3e3bf1bbU, 0x3dfd51fa3e1fe89fU, 0xbd3064bfbc786e80U, 0x3d3b4c2dbdb4b019U,
  0xbbcb6da8bdf92099U, 0xbc7f34b6be69438dU, 0x3db458b6bd374bf4U, 0xbdb1e38a3e390ec5U,
  0x3e2d4c77bd447bb7U, 0x3df6cace3de4a848U, 0xbba8024a3de09a79U, 0x3e182f1dbe7aaefaU,
  0x3e346c273ddc1463U, 0x3e1220313dd5240eU, 0xbdb50a583d1d65e0U, 0x3e3657a33b0a974cU,
  0xbd8b71dcbdb1e72eU, 0xbe19113e3d43ae9fU, 0xbda102823e284a99U, 0xbdb50ec73e2b80abU,
  0x3e289adebc8cec7cU, 0x3df387b9bcacea5eU, 0xbda82b823e519b3bU, 0x3e03309fbf108ccbU,
  0x3dbcb3583df36d5eU, 0xbe2c0846be46bed2U, 0x3e2e1c4f3d4d3f3cU, 0x3a83a6003d5db5ddU,
  0xbd9a5fc03d1c4de0U, 0xbdc49a713a2fe025U, 0x3e4a874ebdbe85d9U, 0x3e22cdd63d3dfee9U,
  0x3dc9ade9bd04adf4U, 0x3dd4150a3d6d5266U, 0xbe9869573e535ca5U, 0x3dde8438bd80337cU,
  0x3c942b50bd90e4a6U, 0x3e14fc833e2c5eccU, 0xbe231e683bcf345bU, 0xbe1125193d8a8c0aU,
  0x3d2311bc3e59a956U, 0xbcb9e720bcfbbebaU, 0xbcbceb0d3db9a890U, 0xbe37040a3e0dee9bU,
  0xbded66b13e1b2898U, 0x3da9e2d5be11c587U, 0x3bc2d1f2be216e3cU, 0xbd861c023e822654U,
  0x3e2980d13e044302U, 0xbe0b150a3e0a9c23U, 0xbe267f303d0a8d82U, 0xbe2cf490be25a4b2U,
  0xbda7f5b2bedd6a29U, 0x3e160c6b3cf2e3cbU, 0x3d8229393d20ff4cU, 0xbd1c72513ee9da78U,
  0xbde0ec483daa755eU, 0xbe3c1f80bd931174U, 0xbe54adc63e2e58e5U, 0x3cb8c6c0bc92fae3U,
  0xbdf68cc1bdb01cb4U, 0xbdaf442ebe222bccU, 0x3da5bdb03e538e44U, 0x3d04bf0b3e4ccf4aU,
  0xbc7eecd83ddaa5aaU, 0xbcdadfae3cf33776U, 0x3e120dc13dc4b906U, 0xbe08269d3e00c9bbU,
  0xbd1c0fd2bd879c9aU, 0x3e408dcbbe626da9U, 0xbe1e1e8ebe054ae1U, 0xbce643f4bdabdd86U,
  0xbe1b9316bc91f7eaU, 0x3b81d429be129eddU, 0xbd3712a43e0c899aU, 0x3e17fcc93e311517U,
  0xbd86f5e23dff7a2dU, 0x3e4fefbbbe255b64U, 0x3db02c293dbe81edU, 0x3d3687b43c9d344eU,
  0x3e0a6a473e4485c9U, 0x3d18e7ccbd749217U, 0x3a4bb100be459702U, 0x3c845d4fbe52d4b3U,
  0xbd0175a8bc63f2c0U, 0xbd9e79eb3e1b7bd3U, 0x3e1a52dcbdd81187U, 0xbe4d7ccabe5627a2U,
  0x3d9b721b3c7f3b40U, 0x3d3cec7c3d48411dU, 0xbe1a90f83daa4d52U, 0x3e53d0bb3e49df8fU,
  0x3cdc8396bca7d41fU, 0x3db4c806bd0911e8U, 0xbe6535ba3e346732U, 0xbe2920e93e45a9f0U,
  0xbdde5a86bcfadc38U, 0xbcf60198be5389c4U, 0xbe3ca168be07b337U, 0xbe5c9b2fbd8be48eU,
  0xbdc83aecbd91a080U, 0xbde81a67bb58a8c3U, 0xbd3f5d38be1498c7U, 0x3d744dfc3d873756U,
  0xbde08f9b3d661e5cU, 0x3da1a8ca3dc75522U, 0x3e1394273dd1df4aU, 0xbdd1fbd93e430285U,
  0xbe3bb040be407798U, 0xbdc90e84be588388U, 0x3d6a3fc43e169ac9U, 0xbde2a1b1bdbdcd4dU,
  0x3ceb6dc0bdbd394bU, 0x3daee01abc8c3fe8U, 0xbe18d14a3c08ee90U, 0x3e34cc373c8b9c88U,
  0x3d86ab42bd8202faU, 0x3e002cd3be0d5984U, 0xbe21cca43e3ce57dU, 0xbded1bd43e29d469U,
  0xbe557132be319588U, 0xbe02c0febd80bbb4U, 0xbe11b1c0bd95cbb6U, 0xbe4625ef3dde5082U,
  0x3d6eec64bd3d4518U, 0xbdc24d4e3e58fd59U, 0x3e1082693df2aaf2U, 0xbb6a81003c906038U,
  0x3d84a7c63d120c2cU, 0x3e11353b3e280cc5U, 0xbcaa0600be262deeU, 0x3e170359be350fa0U,
  0xbe5ce7f2bd855b96U, 0xbe55544ebe2ad4bdU, 0xbe0b675abe286163U, 0x3c96d0b83d947c0aU,
  0x3cdb0f98bd830c6aU, 0x3e422b773ba402a0U, 0x3dff4ee23dca6196U, 0xbe48b8a1bce97e60U,
  0x3e361d5d3c977578U, 0x3e08adedbe4026b7U, 0xbd8bc4d03cf5b510U, 0xbdc82bf1be3fa17fU,
  0x3d43af9cbd5fa534U, 0xbd811224be2dc72bU, 0x3de4d9febd08b948U, 0x3e4098a13da6cd92U,
  0xbe2cc02e3ddfdbdaU, 0x3d488564bacdbf80U, 0xbd5e21743d063008U, 0x3dc9e14e3e322a91U,
  0x3db4c68e3e0cc1edU, 0x3e01bf893bec6f60U, 0x3c51b560be196f5eU, 0x3d9ac1d2bdccbb0bU,
  0x3e491d35be52954cU, 0x3e2ca151bc69fe20U, 0xbdf4b6b53c37a050U, 0xbe1297fa3ddcce96U,
  0xbe254ebc3c997660U, 0x3d30ba6c3daf4bfaU, 0x3d1f8c74bc8d6cd8U, 0x3cca61c03befcb60U,
  0xbd0672f03e1432d7U, 0xbde06524bd11069cU, 0x3d3fa584bcd0b938U, 0xbe59ae87be3b35abU,
  0x3db23afa3e147bacU, 0xbdd8a4f33e494e73U, 0xbe4a52b6bdc5ba70U, 0xbe3a3f4b3e877e6bU,
  0x3dd571053de59f90U, 0x3e4ac16cbe2fe56eU, 0x3d96e8ee3bf95c34U, 0xbdee88a43dcf97b5U,
  0x3e3f9b4c3e65b182U, 0x3e3a0cc9be2a7c0fU, 0xbe5217c0be441e1eU, 0x3d1bc45f3e17205eU,
  0x3d27506e3e52ed33U, 0x3e263a283e2f86e1U, 0x3e9620c23d84fa22U, 0xbdab12213e78aa78U,
  0x3b1950de3d4e93f4U, 0x3e1382fdbe0a84e8U, 0xbd905b643dee83b6U, 0x3e0e96fb3e11d2bcU,
  0x3ce4f3c8bdc0fcd2U, 0x3e67eebebe356d09U, 0x3e2bcf62bcd0f069U, 0x3dfe9a343da9322aU,
  0x3de5dd69bd51b180U, 0x3e0e65bb3e1bfbe2U, 0x3d92e4ea3cb2ac00U, 0x3e2033cabdd66104U,
  0x3e4238d63c099c30U, 0x3d9827cabe403781U, 0xbe184cec3de6303cU, 0xbd9596ad3e32f899U,
  0xbd42e2883be0b5caU, 0xbe30ca1dbe780b87U, 0x3e2a0035bdf61e3eU, 0x3db0caafbdf50eb7U,
  0x3e4754f5bda91291U, 0x3d9f59553daa2f0fU, 0xbd7147413d31a8a5U, 0xbe024cacbe4a7a49U,
  0xbd171277be58e05dU, 0xbd2b99943d08d30cU, 0xbe0916c23d3f99f5U, 0xbd04c89c3e39cd8cU,
  0x3e026fd83e24fdb1U, 0xbe6f6e51bdc78a82U, 0x3e12336fbdd0edc8U, 0x3dc82b26be306ef6U,
  0x3d10ffadbd498bf4U, 0x3e4111a1bd88c0bfU, 0x3dff29a53d236d14U, 0xbdb9d5d63c2d1703U,
  0xbe16b730be1a9ae2U, 0x3d890b8cbd485a68U, 0x3e2fb8ddbdece05fU, 0x3e25bf71be41a095U,
  0x3bbb3734bd931028U, 0x3d6998f53d09aa25U, 0xbbd97372bdfcbac1U, 0xbe1a0b1f3d233a30U,
  0x3deff212bde91147U, 0xbd82225a3dee44dcU, 0xbe3684053d32b114U, 0x3e518801bc847d70U,
  0x3e2ea82d3e4a6613U, 0xbd34e85c3e1b7265U, 0x3dba87433da86dfaU, 0xbe1841693db0333dU,
  0x3dd942553da6d05eU, 0x3dd3b4abbe41666dU, 0x3cb928cdbe2982e1U, 0xbd8601ba3e0a152fU,
  0xbd48979e3cc2c894U, 0xbe222b30bd820e18U, 0x3e005cc7bda12021U, 0xbd87b1cf3e3c9d46U,
  0xbc5ef1cbbd7141feU, 0x3e37be3ebceffc8dU, 0x3dfd60a5bca2ca38U, 0x3e6859cf3eea150aU,
  0x3c4c3ca03d6c3ddcU, 0x3d913cc5bcee454fU, 0x3e1f55c73d3b7a1cU, 0xbdce3bd53d995e60U,
  0x3ddb816ebe050f11U, 0xbdbc80c93d663b32U, 0x3dfe6f923e2d1e68U, 0x3e63783bbe2994ffU,
  0x3e3f311e3e408053U, 0x3cc8ec84bdb98686U, 0xbdd4cb0b3e4f0551U, 0xbdb10933be22bf42U,
  0xbd51bd9f3e012c15U, 0x3e214ed43e2d364eU, 0xbe537769be2a60b9U, 0xbe1cda3ebdf14927U,
  0x3d9292b2be4d8f8fU, 0x3e18d06d3c588f59U, 0x3e00dac1be53a121U, 0x3e2699e6be26d9cbU,
  0x3e51ae67bd828013U, 0xbdd633363ddd60e5U, 0x3dad4495be54a030U, 0x3da9cfcabe05743aU,
  0xbe4c08633d5feb63U, 0x3e46460fbe19336cU, 0x3e4d7ca53e2f48edU, 0xbc0648a53dd98848U,
  0xbe4b287d3e0e2b42U, 0xbc7a23073d8fb0eaU, 0x3e16b0c73df220aeU, 0x3e53ecb1bdd2aa1bU,
  0x3d8f2cae3ca0fd30U, 0x3d2818d13e37e41bU, 0xbd2bd1bdbe5c1214U, 0x3e0d98333d7918a4U,
  0xbcf16260bded5494U, 0x3cc3ebca3e045be1U, 0x3da518273cb91408U, 0x3e2292adbe246fc5U,
  0x3dbf399dbe3cf001U, 0x3dacffd5bde4e4eeU, 0xbd96f314be25c5a0U, 0x3d89e905be21408aU,
  0xbddf89d93db35262U, 0x3d9cfb2abe0ccc67U, 0xbe22d5d6bdb63526U, 0xbe565ff3bda968d8U,
  0x3d8e2fea3e00dd10U, 0xbe07166e3db3c3faU, 0xbd89fd0abe55d18aU, 0xbe1d01e1be07e7fbU,
  0xbda8645cbe40d397U, 0xbcdca313bc95a488U, 0x3c12ad90bd9b9635U, 0x3e1a20c53dbffc7eU,
  0xbdac5ea63e5d5069U, 0xbdb27610bd343fc4U, 0x3ab6ff00bd7e6a78U, 0xbc9e78a0bd11c00cU,
  0xbe240fbabdc05ff1U, 0xbe2ee255be4ae517U, 0x3d67612bbc768120U, 0x3d294b73be4c13bfU,
  0x3c2cb1f0be0a2720U, 0x3c898d903e202467U, 0xbe51e8f13d5c0ed4U, 0xbd03db30be375aa5U,
  0x3de107b2be3ba2e1U, 0xbe2f78bd3e51ec3bU, 0xbae2f400be749437U, 0x3de31780be3ab9e2U,
  0xbd40c2583dae06a6U, 0x3db8ff32bd242a54U, 0xbcfd8c2c3def3ef6U, 0xbe0e648dbd8583efU,
  0x3db9501ebd8a7fecU, 0x3e38d5513e171490U, 0xbdd29799bd135498U, 0x3def6822bdba9384U,
  0xbdc6d20bbd8fb616U, 0xbdec08a6be30fea0U, 0x3c0d7fb0bdbbebdfU, 0x3d8d9932be4025d3U,
  0xbd7523a83d884d6eU, 0x3e0eaebb3d8923feU, 0x3e1f9025bd8dd9e8U, 0xbe5add18bbaa9640U,
  0xbe2003b8bd8340e4U, 0x3e5567c3be45c772U, 0xbd99a216be25340dU, 0xbe092408be59fa71U,
  0x3c95a0c0bb85e320U, 0x3dd5b742be19ace2U, 0xbc8da4d03e51cda3U, 0x3e5d2eb7bd6fa908U,
  0xbd932380be0c0c32U, 0x3db6b5d6bceb5cf8U, 0x3dd7a39a3dcd8afaU, 0x3dde15963d4e995cU,
  0x3d6976ccbe35b630U, 0xbe5136153d45d964U, 0x3da42b1a3d775c44U, 0xbcc9db88bdb533deU,
  0x3e14b2d33e58fe55U, 0x3d89bc8e3c8b2810U, 0x3e017b67bcbf4548U, 0x3c3136c0bd4f6264U,
  0xbe129f76be1801ddU, 0xbe00be1cbe149a9eU, 0xbe34d157be22de40U, 0x3d414764be4c9830U,
  0x3ca2aea0be40d0cdU, 0xbc2cb022bd42d216U, 0xbc97cf2cbe0c1866U, 0x3dfb9267be15dcecU,
  0x3e0952bcbdfba469U, 0xbe974f943c704612U, 0xbe6b49803e05c023U, 0x3e051e27beed7951U,
  0x3c1a4219be18184bU, 0xbd167094bea29d10U, 0x3da693ee3e0a3d16U, 0xbccc6ca43e1a6283U,
  0xbcaa2af0be144d65U, 0x3d1500a23d81fa5aU, 0xbe1e54ff3c7f5a30U, 0xbe915832be1402abU,
  0x3c3abbbbbbdba780U, 0x3d725167be5ba5a3U, 0xbe101a6d3d57adfcU, 0x3e3b68c3be2f3b1eU,
  0xbe325f7f3e1f89f3U, 0x3d3aee9fbd80b350U, 0x3e22ec2abe05c153U, 0x3ef15bd33e0cc4f9U,
  0x3cbc4940be522d47U, 0xbc62e0cdbd0bd53fU, 0xbe89c084be3f343aU, 0xbdb4064a3d12c63eU,
  0xbe5d6ee83c5d8a80U, 0x3e4e83f13e43cd75U, 0xbe14ae773e628df5U, 0xbe3d3f1c3dcdd952U,
  0x3e4e0f29bd188acfU, 0xbcd536fdbe101800U, 0x3b393d003dee124cU, 0xbd65efe2be499292U,
  0xbe3e9d4ebd14a41bU, 0x3da7aafa3e0df09dU, 0xbe67397b3e00d9adU, 0xbdf53a0c3e199b3bU,
  0x3e3e8ae1be064a12U, 0xbdec4b17be6ed14cU, 0x3bb65b8039784b8aU, 0xbe13bad03dab157bU,
  0x3e2f140f3e3e2a63U, 0x3dae24d13e49230bU, 0xbe4f0dcbbe5c2c12U, 0x3e3c386fbe40175fU,
  0xbdd36abc3c9c6920U, 0x3c9ba7403b0d69daU, 0xbe43c8883e24d219U, 0xbd92d8c23bfc4f12U,
  0xbe457c41be41e9a9U, 0x3d8106223cafef6dU, 0xbe10bd98be5080f4U, 0x3e149726be58bf1fU,
  0xbe1317d73db61306U, 0xbcd9e380be0fac6bU, 0xbcdeab3e3db579e6U, 0xbdeed78d3d9d4732U,
  0xbc8ec4e63e5079fdU, 0xbda2df1e3d9bdb50U, 0xbdb3b18a3e2af9feU, 0xbdf068d53d86e602U,
  0xbc4a8430bde7dbf2U, 0xbc673a90b9620800U, 0xbcce1f283e0f7b63U, 0x3d0a3b94bdbdcbd7U,
  0x3df480eebde86d40U, 0x3e1d48133c22dd40U, 0xbd00d66c3dc3556aU, 0x3c6e85f0bd8c9b2eU,
  0x3e23dd9fbdb4c6daU, 0x3e5766c33d1ed794U, 0x3e18c51fbdc69b52U, 0xbc001bf03dbe5c32U,
  0xbe006d3c3e33c38dU, 0xbe1ff6033df03c46U, 0xbdc3855f3e490611U, 0x3d21cc943c8f5450U,
  0x3cfb3b78be0114d6U, 0xbe093e87be50c7c6U, 0x3dd120863e40efe5U, 0xbe1c76ccbe1fa31eU,
  0xbd752c543dc6058eU, 0xbdbc1124bd342690U, 0x3c2416c03e58f147U, 0xbe491065be2ba3feU,
  0xbd2205503d1e37e4U, 0xbe46cb783d923f02U, 0xbe4fbc713e4eed8bU, 0xbd5393a8bd5debf8U,
  0x3e08395b3da17fdeU, 0x3de6a64a3e000d3dU, 0xbdf7d0ccbd2121ecU, 0x3c63c9303e072411U,
  0xbdeecf69bdae34a0U, 0x3be15708be50d711U, 0x3d210c0c3d5f6c6eU, 0x3db2fdac3bb8f900U,
  0xbe2279acbe0a0a47U, 0x3c551d003e26bc43U, 0x3e3a99b53c14879fU, 0xbe1d9b64be247e72U,
  0xbe3fd2d5be22d562U, 0xbe3be11e3e0bb0e5U, 0x3e193727be583a60U, 0x3dc26c2a3d80f8d0U,
  0xbd9f225bbe06e814U, 0xbce1653bbd4db004U, 0xbdd452adbde304b1U, 0xbdbfef083e56458dU,
  0xbe4edab33d0f4724U, 0xbe753fe6be4bad8dU, 0xbe5d10223e561dabU, 0xbcaccce83bb85fa0U,
  0x3d665b94bdb58fc5U, 0xbe1372b33dec3ebaU, 0x3c63f557bc8f37d8U, 0x3d1a4dbc3da01eecU,
  0xbd3714033e1d6cbdU, 0x3e23f1f7bd8bf6e8U, 0x3e4987873dafab76U, 0x3e392a81bdded692U,
  0x3d9f1616bd1f2a1cU, 0x3ceaf9913e0788baU, 0x3e54c841be104990U, 0xbd2952b0bd2b6510U,
  0x3e48f285bd0c8083U, 0xbcb121d53e1f5ea9U, 0xbdc7307bbdf706cdU, 0xbe3882a13dd332d7U,
  0xbe3ca4183e34170cU, 0xbe6e71f6be7cca41U, 0xbc9eb0763dfddd7dU, 0xbbd9cc80bdd0c673U,
  0xbd837add3e080126U, 0x3e37133d3c0b2f24U, 0xbd7beee83dac4ee8U, 0xbde097c0be414fc9U,
  0x3d07a181bd827687U, 0x3dae2b92be15c184U, 0x3db662e53e43f87fU, 0x3e81cce63ea20875U,
  0xbd91d285bdc31c50U, 0xbdeaf65cbca0e145U, 0x3dde4def3c94eb50U, 0x3cd0e0c0be4f93c4U,
  0x3d7d02613d6ac849U, 0x3e22ad6cbca2684eU, 0xbe52a75abe53fe69U, 0xbd48ba643e3fdfd9U,
  0xbe67382ebcd22cd8U, 0x3e046b4abdf17453U, 0xbc7ab674be0723f1U, 0x3e09b6843d1ae3d3U,
  0x3dd700cd3dd3238aU, 0xbe727f5a3d41789fU, 0xbd8f33583bafb6b1U, 0x3db69a99bd71c258U,
  0x3d07e24cbe248a68U, 0xbdaa77b83d654d19U, 0xbd904d643d8429a2U, 0xbe6f0ae8becb35b1U,
  0xbdf2bb183d718f4eU, 0xbd027f013e0ada76U, 0x3dfb4fa2bd3fd723U, 0x3c2edbc0bc9cc8e9U,
  0xbe074373be52f81dU, 0xbd3c2c043eba0abbU, 0x3d7d876c3adb7af2U, 0xbe0bb38c3d4e315fU,
  0x3e1cd25c3c838f34U, 0xbe1bc0063e4dd84bU, 0xbdfd4b573e52d5d3U, 0xbe86548abdb7859bU,
  0x3c99e9133c896b58U, 0xbdd43a58be0220eeU, 0xbd5e0098bc407200U, 0x3e4236313dd01b3dU,
  0x3e1af769be654bedU, 0xbe7b356a3b328dc0U, 0xbd8d789d3eaac987U, 0xbd880bc33cd9150dU,
  0x3d2ba7dfbd9d940eU, 0x3cef7ce3be3327dbU, 0xbe041ba23dbe6fd2U, 0xbd7669da3e010bb7U,
  0xbe91a7f5be400594U, 0x3e096ba93dd087e3U, 0x3e127eebbe7d31d2U, 0x3dddff5e3b477240U,
  0x3e23539dbd298757U, 0x3dbb56a8bda85225U, 0xbe629a99bbe09896U, 0x3cba7c6a3c84c1acU,
  0x3ddf93cbbe32cb6bU, 0xbe457bbbbc88acfaU, 0x3c65ccbabd9b3ad0U, 0x3d953c62be930273U,
  0xbe59cac4bd2d83f3U, 0xbe34f772be3f2f5bU, 0xbe436e0bbd848bb4U, 0x3c872f583d909121U,
  0x3d0f5727be22234cU, 0x3e247f01bd7eba86U, 0xbe7f35b63e09459bU, 0x3d2987e6bef1e06fU,
  0x3db6da113e1eef09U, 0x3e5609ed3dd9971dU, 0xbd7e20ef3dbe41aeU, 0x3e5856a33e1d2decU,
  0x3e1919f5be58d797U, 0x3cf820263d756fe3U, 0xbd01d5b53deafbc7U, 0x3e846e29bdbc08efU,
  0xbe147d5c3dee2ddeU, 0x3db32eb4bdb8522eU, 0xbdba627a3d55d204U, 0xbd372cdc3e22645cU,
  0xbd3aaf443d9b5342U, 0x3e0d20823e20f03aU, 0x3df63c1e3de27cacU, 0x3d303a25bde4fd6cU,
  0xbe4e841abe2190ccU, 0x3d7680cfbe57f832U, 0x3d586f94bd96f6a2U, 0x3dc7ca26bd7d369eU,
  0xbe455ae13cfe09deU, 0x3e0e8ba2bd80bbffU, 0x3db6ad983d56663aU, 0xbe16356cbe229b94U,
  0xbdb7f23c3da2c454U, 0xba5ca600bddddd36U, 0xbe313dc33dc89d16U, 0x3e531149be463714U,
  0xbd00dd553d1aeed5U, 0x3e3841203e13a635U, 0x3e4cc2ec3df68fceU, 0x3d4c6b8b3e378a7cU,
  0x3dbee97c3d2f2a44U, 0xbdfd90a63ccfb885U, 0xbdeec381be0a68f4U, 0xbdb5486e3d2da6b0U,
  0x3c833cb23da7e875U, 0xbe1904533c3a8bf3U, 0xbe59b3c73b7932afU, 0xbe655df93dfe5da8U,
  0x3d2ed5d03e0378ffU, 0x3e283990bdf843e0U, 0x3e0960a1be459c5fU, 0x3dde612cbe4c6b7fU,
  0x3c8ad758be1573adU, 0x3cd7826a3d0f5ecdU, 0x3de79942be3efe0bU, 0x3e5836a1bdd0b153U,
  0x3e02cc2fbe18447eU, 0x3e4c032c3e2fdf35U, 0xbe10e20fbe2776f9U, 0x3d8aa1bebecf446cU,
  0x3d3f3d913e3d8014U, 0x3ea38eb9be15774eU, 0x3e41cbd83e1a0007U, 0xbe4529c93e1c2786U,
  0x3e72b9fdbe435e19U, 0x3e4d35ed3ea630b2U, 0xbd824642bd1d6f62U, 0x3ddd41413d88653dU,
  0x3e3ea2363e323182U, 0x3e2f3d5a3e431256U, 0xbe2c47383e284d67U, 0x3d092d29bee92efdU,
  0x3e13aa92bdcae0aeU, 0x3cd8f39ebe1b7b7eU, 0xbda57a933e1f38a9U, 0x3de8958abdd12efcU,
  0xbdd70aefbe3999abU, 0x3e1460d2bb2dcb40U, 0x3e3754333d4cf01fU, 0x3e1c3e983e44654fU,
  0xbb6d8e4ebdc13e0dU, 0x3da46bbbbcdb383fU, 0xbe8fe3853dc57f96U, 0x3e3cc894be45a3f6U,
  0x3d63c89f3e275a63U, 0xbcb4f7f2be1bfc26U, 0x3d248454bb788d58U, 0xbe1e7b813e1455f7U,
  0xbe58fe253b962f40U, 0x3c2d16c3bddf35daU, 0xbe11de2a3c54927fU, 0x3e11b71abda91906U,
  0x3e07f0f23d5dbd2aU, 0x3df63ab83c37ebe0U, 0xbcdfea04be2c48e4U, 0xbdb07d5cbc89a399U,
  0xbe271c743e57a057U, 0x3e58cb9b3e1ebd76U, 0x3d48e304be20f5c1U, 0x3bde9780be0ad53fU,
  0xbd816d443d2de9fcU, 0xbe51c3b5be2c7dd2U, 0xbe18cc5a3d3f4facU, 0x3cabf257be3f2712U,
  0x3d2cf7493dfd658eU, 0x3e3c8445bc581f09U, 0x3c147e603d89296eU, 0x3c816e403d967204U,
  0x3dd0f28e3e3c25d6U, 0x3e11be293d96eb6eU, 0xbe07aff9bd20e5b8U, 0xbe1ffd8bbe16c4b0U,
  0x3b9a36403e36bdc9U, 0x3dbbadd2bcf87d3aU, 0xbe519491bdfdd0c6U, 0x3c1677fe3cf3a004U,
  0xbe3c165cbdacd3f8U, 0xbd9b8d18bdc49e5aU, 0xbd9a924c3e513415U, 0x3d7935313e2d3839U,
  0x3d131e7cbdf912b0U, 0xbaee02003d8a76c6U, 0xbda1833ebe531270U, 0x3c15c470be327438U,
  0xbe0f24b43e38d373U, 0xbe2db0fabbcc0dc0U, 0xbe3d7fe03acff980U, 0x3e3f1ca93e45d9dfU,
  0xbdb0862ebdc05d5fU, 0xbe1e021cbe2ed465U, 0x3e59b363baac2f00U, 0x3e0f21f53d0b2bf4U,
  0x3da73aa23e064ed9U, 0xbe2121473d46d844U, 0xbd40990cbe2dc1e1U, 0xbd91768cbe148b72U,
  0xbd9553723df4f6eeU, 0x3db4905a3e2459efU, 0xbcc98d60be1f7642U, 0x3b41f3c0be461ea8U,
  0x3e2f2c4bbe477abeU, 0x3d1f8b8cbc9667e8U, 0x3d53aba4be014606U, 0xbe39e35a3ac84100U,
  0xbdc0a67fbcae4f98U, 0x3d80598a3e37bae9U, 0x3d20abb4be17656cU, 0xbe3697123cdfa3a0U,
  0x3da7e0d6be42bdc1U, 0xbe01d996bdf07fb2U, 0xbe2d18c6be248eceU, 0xbdec922f3c4c06e0U,
  0xbc59f3e0bdeacdaeU, 0x3dc5aefb3e267e9cU, 0x3de5a4ae3e2d8ec8U, 0xbc2429e1bd0bb35cU,
  0x3d0633403e377a5aU, 0x3e2e6322bdce0291U, 0xbddd077abe004154U, 0xbcbc30903e191bf5U,
  0x3d8613b93e7c02ebU, 0x3dd9f68ebeb7be5aU, 0x3d39478cbe32421fU, 0x3dad028bbd313f31U,
  0xbe073f753d9637c6U, 0x3cfecb5d3dc212f3U, 0xbd172cd1bd63cb10U, 0x3e70f2f63f493c9dU,
  0xbd23f4a6be2ce8e6U, 0x3b5a6ae73d9ba2a0U, 0xbe3842633e5aa2b1U, 0xbe11f7ac3debca19U,
  0xbd4352d1bd553a53U, 0x3e177a183e47d2acU, 0xbe4145b8be6f8a36U, 0x3e38e3a93e5fd0eaU,
  0xbe977e47bd4d45e0U, 0x3e6888febe3ede0fU, 0x3e11e521be26729dU, 0x3e06e407bd9c5353U,
  0x3e53a398bcee8db8U, 0xbd2c32a83d8a4e2dU, 0x3dcb82f23da6e6ebU, 0xbe0c215b3e3df03dU,
  0x3e38d42d3de37cc5U, 0x3de69f79be0375abU, 0xbc5ee2c0bdd0e909U, 0xbca7c7b83e8550c9U,
  0x3e20847bbe3fd8b1U, 0x3d21dd3cbdc7ba08U, 0x3bdd81c1be4aeb7eU, 0x3dccbd9e3e1778acU,
  0x3d0a4fa63df2dcaaU, 0xbe360ebdbe55ca13U, 0x3db46e26be0c007eU, 0xbe123709bddf2eb6U,
  0xbe0d13543d77cf4cU, 0xbda68efb3da3ff66U, 0xbe83b23e3d5171a4U, 0x3d117eb63e320217U,
  0x3dd795ad3c1f7d00U, 0x3d686f34bdd79bf9U, 0x3e495999bd80368eU, 0xbda5e2883e14a077U,
  0x3e3c2cf53bb9b15aU, 0x3d7a39f4bd4d8ec3U, 0x3d6e65ad3e2b7fceU, 0x3e334be9be3ec8ecU,
  0xbd80643abe100df6U, 0xbe0423f4bb8be8daU, 0xbc46f6bbbe40f12dU, 0xbdb6fa31bda1ca20U,
  0x3d1ee337bdd873c5U, 0x3dd10593bd6abb49U, 0x3e2b7321bd9bc742U, 0xbe5bb44d3d2ff98cU,
  0x3da15a8a3c6bbb40U, 0xbdf9bff3be0745c9U, 0x3e3ff233bd600844U, 0x3d645ec4bd850612U,
  0xbcaf07a03d6b481cU, 0x3e4e9cbbbd2fe804U, 0xbd1dc4643e2e4e6fU, 0xbc039e00bda7cb6eU,
  0x3e0bcee53cc52ec8U, 0x3dc2f0a2be3fe446U, 0xbc584aa03e139e21U, 0xbe418eb63d44994cU,
  0xbe4e79ea3a161400U, 0xbd64980c3dd6d852U, 0x3d07786cbc952aa0U, 0xbdccca48be51714fU,
  0x3da6fc1a3e45e9a3U, 0x3dc4e7b63e303e37U, 0x3e5ac9573db22faaU, 0xbdc0d9e3bd68d100U,
  0xbe0ed7dabe55c5ddU, 0xbd7300c4bb941420U, 0xbe5daa0ebe4932e0U, 0x3d96c04a3e28d63bU,
  0x3d3d70543cbaa3b8U, 0x3cbce3b83d072520U, 0x3dfd7bbebd3678a8U, 0xbdecfea73d612ab4U,
  0xbdb79ae8be37400eU, 0xbe16d264be2b753aU, 0xbe0dfddcbdd0e7dbU, 0x3d51c0e43d52ed2cU,
  0xbe5518c4bd929c22U, 0xbd727c7cbdc960a7U, 0xbe245efc3d4c442cU, 0x3c3bb4803d265df4U,
  0xbdabb7d4be1617e6U, 0x3c8e2228be475b22U, 0xbd40c8acbe5b0df9U, 0x3e3273c5bde0ca02U,
  0x3b9d3dc0bb8c4940U, 0x3d66bf64be1bb36eU, 0xbe2e1a1b3ddbc046U, 0xbe26d3c6bdd3211bU,
  0x3dfe8cfabd7bdb28U, 0xbe0a28f73e0d0da1U, 0x3dd873e23e0cb5d3U, 0x3dbb598a3dc8c302U,
  0x3dd8cb663cb96520U, 0x3b5778803e5562b7U, 0xbc4e3a703db4ecbeU, 0x3e31ef6fbe3764dcU,
  0xbc9baad03dcc6286U, 0xbd61d29c3d2b4444U, 0x3c2b2df0bc7724d0U, 0x3e5c96033da48c82U,
  0xbbfdc3a0bd518af8U, 0xbe40ed1a3d68cf0cU, 0xbe1acdf8be31e7e6U, 0xbe3ef99cbe118696U,
  0x3e2037233d021cccU, 0x3e2828093dd16e46U, 0xbd74b1303dc5a78aU, 0xbde06a34be304919U,
  0xbe3901edbe605c39U, 0xbe38af4a3dc1a2ccU, 0xbe1735a4bdc574aaU, 0x3e1a353fbe2564c1U,
  0xbe53f0d4be2f2a19U, 0x3dda2a86be35113dU, 0xbe68ab9dbe1baeb1U, 0x3e3ed8b7bcd11098U,
  0xbe697bd93e2db84dU, 0x3a94d5803d2a6284U, 0xbe18b7c8bd4bf673U, 0xbd9ea76e3dde1e13U,
  0xbe340a1f3d64666cU, 0x3d48ab963d78a34cU, 0x3c421a203e1430bfU, 0xbe4f2f253d7b1d64U,
  0x3daae868be1856caU, 0xbe1c456d3e1ee7abU, 0x3e20073dbce57708U, 0xba01a2003dd372caU,
  0x3d86f8a2bc09628cU, 0xbd9e92e23dcce33aU, 0xbdde7b24bd45a528U, 0x3d879622bdac184fU,
  0x3e2739f93e20594fU, 0xbe4ace06bd6bbb35U, 0x3dcf14ac3e4d25d3U, 0xbdc1c2fcbcc39741U,
  0xbe5c63d5be4a263aU, 0x3e0d402dbc76871fU, 0xbdcd8f773e1d7222U, 0x3e4585433d32628cU,
  0x3e475a2dbc3eb6a3U, 0xbd6eaf8a3e3b78d2U, 0x3cd97cf7be1ab3c6U, 0x3cd95b27bdf202a5U,
  0x3e1249553d823051U, 0x3e7cb204bd264cf0U, 0x3e09828f3e197d0cU, 0xbcc3c4583e17387fU,
  0x3c985dac3dfd77ceU, 0x3d32fa6cbc8d3fbbU, 0x3e59c13b3e37290bU, 0x3d01080fbe391f05U,
  0x3dcb133bbe4a6db8U, 0xbcd12727bdbeac88U, 0xbccdc1343dfe51d6U, 0xbe44b49dbf0224dbU,
  0x3d2783373b1ea7c0U, 0x3e1a67cf3e5c375eU, 0x3d10bd1b3dec515eU, 0x3e271a533d833ce9U,
  0xbe3b5e3bbd96f08eU, 0xbe500a963db0f143U, 0xbdfe1398bdc2a2b6U, 0xbe9dab153e40a759U,
  0xbd5f78d7bdb4b258U, 0xbd3bfb23bda4c312U, 0xbdd1fd0e3e017685U, 0x3c85b6bbbd94531dU,
  0xbdb652b1bdfeb090U, 0x3d8a18163e480db2U, 0x3e4c1e613d0fc7d3U, 0xbde10ea5be09966aU,
  0x3ad3b5803e1184a3U, 0xbe0235d3bd723582U, 0x3e290733bd32f646U, 0xbd9889e63e598fcaU,
  0x3d651b933e546a51U, 0xbe434f8c3d357a90U, 0xbd071dff3e08c9ddU, 0xbe1803ef3e55678cU,
  0x3e42bd343e2740d9U, 0xbe02d54ebe72be25U, 0xbe4f679c3d096fc7U, 0x3e1dcf97bd23da44U,
  0xbdef31f6bc4144b4U, 0xbd9b339fbe38648cU, 0xbd210047bdc06e79U, 0x3d8bbb353f171398U,
  0xbe16dbddbdc18e6dU, 0xbe580a263cf4f6c7U, 0xbe30e107bdf15a3bU, 0x3e3004273d0a7fb0U,
  0x3db74883bcef915eU, 0x3e5b8463bd8a4383U, 0xbbc6de013e0caed9U, 0x3dae49d53e4f646eU,
  0x3be48a0ebd26e96cU, 0xbcace83bbe3d4e73U, 0x3e4e02d5be06e9e8U, 0xbda23199be0c7513U,
  0x3e61be91bd9fba72U, 0xbe132b6b3db21bf2U, 0x3d8351fe3dbed93bU, 0xbe4471f3bd9eb6beU,
  0x3c6879f03c43dbc3U, 0x3cf46ab63dbfa1b9U, 0xbdc820fdbc3248f3U, 0xbdc6610b3e9e8873U,
  0x3dc4e8c93db44702U, 0x3d7507123e18cd03U, 0x3e17c17ebe17c20dU, 0xbd525e703c22ea9dU,
  0x3d81dda6bcd5297fU, 0xbe447111be08e9f5U, 0x3cda29883d1c1b25U, 0x3e2d6d95be46e175U,
  0x3e339ebe3ccd586eU, 0x3e3879d13d6c5bd7U, 0x3e6a13923dc01532U, 0x3d200aab3eacb6aeU,
  0x3e0b03f6bde38ca8U, 0xbe5b1b41bd0d776cU, 0xbe1db1d33e485969U, 0xbe164e563dce7a73U,
  0x3e0285133cdbc088U, 0xbc5ddd113df33d0cU, 0xbc9e4b74bcad59feU, 0xbe100264be3e065cU,
  0xbd2c71b1bdbe5b24U, 0x3e3a1c653e16a074U, 0x3e89d3c2bc955240U, 0x3d26fe31bd367362U,
  0x3c8f38a33dd13dfeU, 0xbe3849c83d90b215U, 0xbd1be77cbd97363bU, 0xbe460d123de8e382U,
  0x3dddb42a3e30a161U, 0xbe3ace80bd9caa31U, 0x3d9589d0be27bf69U, 0x3cc52730bddd22a7U,
  0xbdfb067c3d11e912U, 0xbd8072de3e1d3577U, 0x3dedfd53be01344bU, 0x3dd94b52be4ec850U,
  0x3d43ab23bdceb5abU, 0xbe22a2dc3e4c1de2U, 0x3e4c312bbc070967U, 0xbd8e6463bced7968U,
  0xbe1362443deae196U, 0xbe10abbbbda94534U, 0xbe1f4b59be2a21f6U, 0xbdacd906bec77faaU,
  0x3e53bf3abd93ff42U, 0xbe25ac3b3d3fa8bdU, 0xbd5d9e953e539259U, 0x3e231c793ba9192bU,
  0xbe2e001dbe3bb79dU, 0x3d2f735cbe272b98U, 0xbe0697ff3e3f6a99U, 0xbe24d16cbd819181U,
  0x3e3971e9be086829U, 0x3cb12a213e3c7598U, 0xbe1022963e12859bU, 0x3d8de1c83de4e421U,
  0x3d5e9779be1a6786U, 0x3cfaf2793e5b52e0U, 0x3e39d18f3db08df0U, 0x3db23a963d7631b4U,
  0xbca45fa03cab1df0U, 0xbc23b020bded02a2U, 0xbe0166c23e1cc54bU, 0xbd78c39c3d9acd2aU,
  0x3d7a6a2cbe42db2fU, 0xbd9549c2bd684464U, 0x3daa9322be3a4950U, 0x3c8fd1a83c1965f0U,
  0xbe1a42da3d2d0b5cU, 0x3e47bfa93e1ba593U, 0xbe28490b3e1f91efU, 0x3d9e9ff6bdf80afcU,
  0x3e41b7173d57f98cU, 0xbd748228bdfc84e6U, 0x3d3c29443e25e7c1U, 0x3e4c8ced3dc311caU,
  0x3d0ad6743a24c300U, 0x3d35d974be00b54aU, 0xbe4162f3be453c45U, 0x3de436423e1f7367U,
  0xbe073693be1f12d7U, 0xbe4cafa0bddda672U, 0xbe4666eabd9077eaU, 0xbcfef5c0bd045eb4U,
  0xbe4d7d47bde25035U, 0x3ce76490be188e4cU, 0x3e2a0d0dbe33542eU, 0xbde929fdbdd286bcU,
  0xbd0133843d4d4774U, 0x3d2c8f943cb61300U, 0x3e0f4f69bd12313cU, 0xbe3e0143bdf36da5U,
  0xbe16a238bd913bfaU, 0x3d7eb83fbe1d101eU, 0xbc970280be551a29U, 0x3e35274dbda85cfbU,
  0x3dfae0893d0180dfU, 0x3be06a07bca3fe4cU, 0x3e1b13ffbe19a9a6U, 0xbcfe07e8be44a30aU,
  0x3d5f51803cb7af71U, 0xbdb837023c00da18U, 0xbd13d1183bb907b0U, 0x3db9109dbd5317f7U,
  0x3d875d07bdf97e98U, 0x3e26fc8bbe286b3dU, 0x3c4f2bbcbe355797U, 0x3e0fab12bf0d1950U,
  0xbdab41913c6eb7f0U, 0xbe48a63bbd131efaU, 0x3e6af7153d2b8844U, 0x3c79c2e03e0b3c3aU,
  0xbc3923c63e503460U, 0x3c8f92a8be28da63U, 0x3e4205833d071a3cU, 0x3e3004dfbe62d1a7U,
  0x3e2005bf3d7284dcU, 0x3df125083d64dbb8U, 0xbdab0b0abda3dd0eU, 0xbd9c8be0bd3bee44U,
  0x3c1053db3de59956U, 0xbd32ed72bd9d7c81U, 0x3e3c48bdbdff2e67U, 0x3e4d3342bd126794U,
  0x3e1bd1893e0e52b8U, 0x3e2c551c3e6a294fU, 0x3d996a90bdebd9b0U, 0xbdbb4d983e0805f8U,
  0x3db8d78bbda8111fU, 0xbc2c6bd13e3563c4U, 0xbcb1b9403e342b40U, 0xbe2225dbbd3658dbU,
  0xbd9bfa443e2db01dU, 0x3e4aef53bdec00a9U, 0xbd8427103dbfc1d3U, 0xbd93dbf0be08b0eeU,
  0x3dfcac92bdcd874aU, 0x3e01fd39be43a5d2U, 0xbd8184453d81936eU, 0xbe13f4e33f197b59U,
  0x3e42fe293e1eae2bU, 0xbd8876ea3e433bd1U, 0xbd3051113e26c3c7U, 0xbe130c1f3e4be4fbU,
  0x3d907131bda440b3U, 0xbe2aa4753da16b89U, 0x3d0651183d1ccc1aU, 0xbd6bb9ad3d065e01U,
  0x3dc0b45bbd2d1c34U, 0x3e47271a3e4127e5U, 0x3e9e47953dea0c06U, 0xbe1823d3bda8ba05U,
  0xbd92e01c3d9bd02eU, 0x3d286d5b3e3dbb45U, 0x3dcdb6ae3d0f89b1U, 0xbceeff6dbdf14317U,
  0x3e336dfd3db2d342U, 0x3d7fab9f3e3cdc40U, 0xbdb2e0c23dff9d7cU, 0x3da50912be8d5861U,
  0x3d91ca503db154a6U, 0xbdcd106e3c64a5cfU, 0xbd404e46be3ed8dbU, 0xbda7494e3dd5f419U,
  0x3e26848ebddb61d8U, 0xbbd8d3003d82e597U, 0x3d7deffc3e45d58bU, 0x3e1637323e0f5b2aU,
  0x3df68f3a3dce6b92U, 0xbc8fdb0a3daab741U, 0x3d5b975cbd3e34d0U, 0xbe436a253e819628U,
  0xbc3ec8163e573149U, 0xbc9a8705be191096U, 0xbe1f9653bdc3aab1U, 0x3e2949b3be30a53cU,
  0xbe42b4183e1e052eU, 0x3e826652be3ed332U, 0x3cfa7c0dbe29ece4U, 0xbda98b623d524b24U,
  0xbdf5f4db3d444a7cU, 0xbdd0e025bd3a0155U, 0x3e5cac823da685eeU, 0xbdc4261bbdd538daU,
  0xbe2dc20ebd3a5cccU, 0x3ddb32c0bce90652U, 0x3d0d2aa43e2d8d04U, 0x3c4ee3c03cb58df8U,
  0xbd712ea0bcc6e55cU, 0x3cdb7a93be2fb22aU, 0xbc72b1763d8b0586U, 0xbe19e1653e264061U,
  0xbdcd88bebd6e9e79U, 0xbda371923e11d742U, 0x3df2e02cbca7d672U, 0xbce023483e0c677cU,
  0x3d10c9a43db7143eU, 0x3e42e9a9be51dd0dU, 0x3e17e475be14f1d4U, 0xbdc59a4dbd8eed19U,
  0xbe0d9a6abe1e941dU, 0x3d551b823e2ff37eU, 0x3e42fe203db0bc0aU, 0x3e49a0493ef16d14U,
  0xbd739bac3d43dac4U, 0x3d04285a3e31119aU, 0xbeeac756be587f91U, 0xbe3ff7813cb1345aU,
  0x3e0402c53d027d07U, 0x3ddc733f3dd5f676U, 0x3d85cc21bdb9964bU, 0xbd2e061f3e2e6a61U,
  0xbe3288933e3fc473U, 0xbce6b9dcbceb5b3aU, 0x3e8b6dea3ba50a60U, 0x3e590e523e255743U,
  0xbe435320bd7bffe8U, 0xbcc11fbc3e597640U, 0x3deb802abdfbfba5U, 0xbdd585e7be54326eU,
  0xbe4fab53bde9fa8aU, 0xbdc3edc8be2b5462U, 0xbdad404cbc888100U, 0x3e5b5889bd9755a6U,
  0x3e5c7fa9be4c38b9U, 0xbdf56752bcb55650U, 0xbc5abda03d972a5aU, 0xbb91f7c0be34c3a9U,
  0x3e11057f3d534564U, 0xbd737ff83d3ad314U, 0x3e225163bbfe1da0U, 0x3e5068c7bd3ffdb4U,
  0x3d000284be1b2e5cU, 0xbe1bdb2fbe4797baU, 0x3e589d8d3df8bd46U, 0xbe038f44be4be09eU,
  0x3da7beca3e1306f1U, 0x3e51fec13e2ba18bU, 0xbe17aba7bd829010U, 0xbd4df9bcbe51031fU,
  0x3d08d3503cd17ba8U, 0xbdd6e0cc3cf7db30U, 0xbd54e550be034334U, 0xbe1c56da3c5aa530U,
  0x3e267a43be2653abU, 0x3c34a8203c86cfe0U, 0x3daf44063d82bc12U, 0xbe3625b4bdfdecfaU,
  0xbc4597b03e4e534bU, 0x3cc130e03cbbe9a8U, 0xbe539e6fbdad40faU, 0x3e2171653e4cabebU,
  0xbe16457c3df1230eU, 0x3e778f01be233073U, 0xbdc6b85c3e0de9b5U, 0x3d9ddb9a3e1f1b16U,
  0x3d86633fbc7cca39U, 0x3cfe1b8b3d7e1a24U, 0xbe10dc7bbe31e53aU, 0xbe5d65053e37f3a8U,
  0xbe0bbe20bf13a242U, 0x3e5963eb3b2c3d80U, 0xbd48c90c3e6bb677U, 0xbe67c606bded1df9U,
  0xbee2dcf23e58c843U, 0xbe2c6d9c3e33d184U, 0x3e488747bd12f7a8U, 0x3e71a0943f188ff0U,
  0x3cfdaddd3be94a00U, 0xbe17b323bd5d8739U, 0xbe40fa34bc004090U, 0x3d8ee6f23e3a6fd7U,
  0x3e0ea1cebe053dfaU, 0x3f58af0abe37db14U, 0xbdf87da2bd1aa434U, 0x3c3b6047bd4eaeb0U,
  0xbea23a86bd904f1aU, 0x3e080464bdc153c6U, 0x3ddc796fbdeb68deU, 0x3e0e28bc3e3449b4U,
  0xbd429bf83e2360dfU, 0xbdeb6d3b3e23b4fcU, 0xbd5141d83dec8c1fU, 0xbdfba6323c0d5960U,
  0x3dcb9c4ebc4eeb73U, 0xbb448b9cbdbd9b9eU, 0x3e0ab3203d23f749U, 0xbcc7dd743cddbb88U,
  0xbe4723b63de5567bU, 0xbcf3ee84bda2c042U, 0xbb89ed06bcc3210dU, 0xbe1ac642be497c50U,
  0xbe41ed9abd888bf0U, 0x3d7f098c3d387ff4U, 0xbd3b1b8cbe276623U, 0xbd7b61483e170f0fU,
  0x3e1cf502bd8205f7U, 0x3d773e223cb85b40U, 0xbc5c14523dcb86aaU, 0xbda8ffa93bed1db1U,
  0x3e4098e73b8ef5c0U, 0xbdd1699bbdfda476U, 0x3e131bddbe0db766U, 0xbe42e8f9bcbf8c49U,
  0xbe36c6a7be455958U, 0xbe3df1f1bdd731b0U, 0xbe4d9eb63d1adbd4U, 0x3e4bdd393c29a532U,
  0x3d5811343e22ed81U, 0x3dd47fccbe0679f6U, 0xbd417e36bd87208cU, 0xbe3832c9bd2df27cU,
  0xbe0ff48bbe1ea4aeU, 0xbe10ec353e0a2884U, 0x3e2e5f133e09ee52U, 0xbe347c94bda627b4U,
  0xbd5926ecbe02209eU, 0x3dee024a3ba09193U, 0xbd184f10bcdb1040U, 0xbe12d9fcbe364779U,
  0xbe01b5163e00f558U, 0x3d37f6633d5f38acU, 0xbdc34c083de8c714U, 0xbe37bece3dbe8079U,
  0xbdb6ede3be256dd2U, 0x3dc4a6ba3db0743bU, 0xbd10ebe0bc2925ceU, 0x3e4ddc8cbe0bb61fU,
  0xbdcf69a5be386b94U, 0xbd6be4193d9a59c3U, 0x3e0280453d2eb5ecU, 0x3e0d17cdbe51c5d1U,
  0xbd49b0e43e121235U, 0xbd0fee003e537959U, 0x3dad03e63de32edaU, 0x3dbf542e3df5ba76U,
  0xbc85b125bd13f8bdU, 0xbbb88dc9be5961dfU, 0x3e346db23b19200bU, 0xbe510bc8be331015U,
  0x3cb186dfbd6865e4U, 0xbccf80383a163674U, 0x3d1fb138bde73ea7U, 0x3d7fb818bd91dddbU,
  0xbd9d2d893e04a635U, 0x3e378c60be50f9a0U, 0xbd28dd48bc70a6cdU, 0x3dbc607e3e3b5e2bU,
  0x3e1747a33d299398U, 0xbd81833abe3915e6U, 0x3e223299be16e07dU, 0x3e4f8ccb3db68334U,
  0xbaf040de3d5ee0acU, 0xbe223f793ddb5ca6U, 0xbe3114c43db6c2dfU, 0x3cbcbb203de64b6dU,
  0xbd4a1e53b93477a0U, 0x3dbe1d923d91d7a4U, 0xbcc352e8bbc24ce2U, 0xbd7c1554bd36d1bcU,
  0x3d214173bc2d6d8fU, 0xbe2f705ebdf16fd3U, 0xbbbf47d6bc4ffe40U, 0x3b34c2983e8c3b46U,
  0x3e0a674ebdc749bfU, 0xbe500ea23e1bd40fU, 0xbe50d2e73e0a5fedU, 0x3de4088e3952280eU,
  0xbbec452abc0d1e9dU, 0xbe1c3bd13c626bdfU, 0xbda6e7bcbebd1131U, 0xbe9e3024bd03e791U,
  0x3cba2d463dbc9d46U, 0x3e2029a4bd227e45U, 0x3e9b0741bdd880faU, 0x3e185ada3dfa1671U,
  0xbdd277b33c41a460U, 0x3cd5504a3d25cdfbU, 0x3b94ffa03cf3b068U, 0x3d8a202cbe026500U,
  0xbad482003e2c5b93U, 0xbde2c8163beb2acbU, 0xbe3414553cb55338U, 0x3e2220923e2be43aU,
  0xbc83dfbcbdec9b9dU, 0x3d9959e13decd476U, 0xbe1564cebe5003d5U, 0xbe1a092ebde98401U,
  0x3d7819bebe559d6eU, 0x3c2f95f0be3a3494U, 0xbdf749c13e1a08b1U, 0xbd7985ecbe18eb2cU,
  0x3ca628c83d24969cU, 0x3e33b671bda21068U, 0x3daaa3f3bd01c0bcU, 0xbe1e58d6bdc04e67U,
  0x3b8c8556bde8cfecU, 0xbe2798cbbd83df3bU, 0xbd3ff248be1fa1caU, 0xbe5c7d3fbe1b672aU,
  0xbe60b25abe02484cU, 0xbda05d42bdc4cbc1U, 0xbdcefef93dbdddfeU, 0x3dc97d78be44b050U,
  0x3cfe05a03d908886U, 0xbda9bce8bdaa1660U, 0xbe2a1730bd513818U, 0xbe5b080dbd2e6bdcU,
  0x3d8eb2113dea961aU, 0x3e0b5573be489480U, 0xbba6e480bd3e6f8cU, 0x3e07b6e13db759eeU,
  0xbbe268e0bd8d9ca2U, 0xbe30ce173e0a9035U, 0xbde926a6be6b5b29U, 0xbe3f421cbdef6b0eU,
  0x3d56d4efbe2bb91bU, 0x3e24971cbd619419U, 0x3df8d86bbe0df423U, 0xbd039530bd5bc05dU,
  0x3ccc020dbdcdcca0U, 0x3c6ea780bdf08da2U, 0xbd9b9088bcd27fa7U, 0x3d1d2543be03480fU,
  0xbe3374963d93ea5dU, 0x3e17f83dbe0835e0U, 0xbe574f29bdf7a56aU, 0xbc2ae0fabe8846d1U,
  0xbd90c6793de128faU, 0xbe1002fd3db78321U, 0x3e2d77bd3d352f8cU, 0xbe44524c3cea0464U,
  0xbe4350ecbe1930ebU, 0x3e09d86fbb1ad9afU, 0x3d7b3e18be5dcddbU, 0xbd32071dbd92c213U,
  0xbe04ee13be4a933dU, 0x3d044583be4d50d3U, 0x3b9cc88e3e35f743U, 0x3db77e003ca7fc56U,
  0x3c9d75ab3da9c9caU, 0xbe1c20893dd282bcU, 0xbdabf7ea3de05ca4U, 0x3daa982bbcc1a2a8U,
  0x3e2d2d00U, 0xbdf4fa66bca05509U, 0xbcc469d800000000U, 0xbc2b0fe93e0bb29bU,
  0xbccf7262be1f6459U, 0xbe181826bd451454U, 0xbdaa066ebdaf64deU, 0x3db51af7bc8cc754U,
  0x3dbb8a66bc99ec81U, 0xbe203afeU, 0xbe16aa87bbdb52c1U, 0xbc4bc7143e078001U,
  0x0U, 0xbce5f96f3e066461U, 0xbbd9fe793dece58fU, 0xbd015027U,
  0xbce6853abe18447dU, 0xbcc1020900000000U, 0x3cdfff743e055d2bU, 0xbca4bc7cbe1777b0U,
  0xbd004835bdea8612U, 0x3d95582600000000U, 0xbd027b8fU, 0xbd00ccc500000000U,
  0x3dfbfc87be075bfdU, 0xbde83bd83dd089d6U, 0xbe08865100000000U, 0x3e028db73e0da0e9U,
  0x3e0f6879U, 0xbc96ef7b3def2469U, 0x3deac6f5bc64d485U, 0xbd4bd0b8bd115ee8U,
  0xbde306ae3e440d17U, 0xba2daab3be87372fU, 0xbe863d413e9466e0U, 0x3d35a8df3e225472U,
  0x3d9bb12abd8af55fU, 0xbd4b4a2d3e826875U, 0xbcfc19d1bb15cde7U, 0x3c927a36bdffd255U,
  0x3c0050c7be0ab125U, 0xbddb0002bc478898U, 0xbe8b6d9e3e798795U, 0xbe80acda3d4dfbceU,
  0x3d4707c03e076e7aU, 0x3c2bb96c3e5c6eb0U, 0xbe5c76063d437399U, 0x3d63da003d457889U,
  0xbe445325bd187721U, 0xbc76377ebe657099U, 0x3d5c60153dca4196U, 0xbe4e6cf3bd481c60U,
  0xbe905905be794e43U, 0x3e94d4873e56b474U, 0xbe2700afbe3a1fefU, 0x3e6eb85cbe15a815U,
  0x3de062b6be2084b6U, 0xbe7ed5873ca39965U, 0xbcb9dac1bd8776c0U, 0x3dfb823e3e868a51U,
  0xbd702ad43de37617U, 0x3e7e3e353ddea9f6U, 0x3e1493123d819e04U, 0xbc1a956abda7e195U,
  0x3e138c9eU,
};


ai_handle g_model_2_weights_table[1 + 2] = {
  AI_HANDLE_PTR(AI_MAGIC_MARKER),
  AI_HANDLE_PTR(s_model_2_weights_array_u64),
  AI_HANDLE_PTR(AI_MAGIC_MARKER),
};

